{
 "special_tokens": [
  "<UNK>",
  "<EOS>"
 ],
 "alphabet": [
  "\n",
  " ",
  "!",
  "\"",
  "$",
  "&",
  "'",
  "(",
  ")",
  "*",
  "+",
  ",",
  "-",
  ".",
  "/",
  "0",
  "1",
  "2",
  "3",
  "4",
  "5",
  "6",
  "7",
  "8",
  "9",
  ":",
  ";",
  "?",
  "A",
  "B",
  "C",
  "D",
  "E",
  "F",
  "G",
  "H",
  "I",
  "J",
  "K",
  "L",
  "M",
  "N",
  "O",
  "P",
  "Q",
  "R",
  "S",
  "T",
  "U",
  "V",
  "W",
  "X",
  "Y",
  "Z",
  "a",
  "b",
  "c",
  "d",
  "e",
  "f",
  "g",
  "h",
  "i",
  "j",
  "k",
  "l",
  "m",
  "n",
  "o",
  "p",
  "q",
  "r",
  "s",
  "t",
  "u",
  "v",
  "w",
  "x",
  "y",
  "z",
  " ",
  "¡",
  "«",
  "»",
  "á",
  "é",
  "ñ",
  "ó",
  "–",
  "—",
  "‘",
  "’",
  "“",
  "”",
  "…"
 ],
 "merges": [
  [
   "h",
   "e"
  ],
  [
   " ",
   "t"
  ],
  [
   " ",
   "a"
  ],
  [
   " ",
   "s"
  ],
  [
   " ",
   "w"
  ],
  [
   "n",
   "d"
  ],
  [
   " t",
   "he"
  ],
  [
   "e",
   "d"
  ],
  [
   " a",
   "nd"
  ],
  [
   " t",
   "o"
  ],
  [
   " ",
   "b"
  ],
  [
   "i",
   "n"
  ],
  [
   " ",
   "h"
  ],
  [
   " w",
   "a"
  ],
  [
   "r",
   "e"
  ],
  [
   " ",
   "f"
  ],
  [
   "o",
   "u"
  ],
  [
   "i",
   "t"
  ],
  [
   " ",
   "l"
  ],
  [
   " ",
   "c"
  ],
  [
   " ",
   "d"
  ],
  [
   " ",
   "he"
  ],
  [
   "e",
   "r"
  ],
  [
   " ",
   "m"
  ],
  [
   " ",
   "p"
  ],
  [
   " wa",
   "s"
  ],
  [
   " ",
   "T"
  ],
  [
   "o",
   "m"
  ],
  [
   " ",
   "o"
  ],
  [
   "a",
   "y"
  ],
  [
   "a",
   "r"
  ],
  [
   "i",
   "s"
  ],
  [
   "i",
   "l"
  ],
  [
   "in",
   "g"
  ],
  [
   " ",
   "g"
  ],
  [
   "i",
   "d"
  ],
  [
   "a",
   "t"
  ],
  [
   "e",
   "n"
  ],
  [
   " ",
   "n"
  ],
  [
   " s",
   "a"
  ],
  [
   " h",
   "a"
  ],
  [
   " ",
   "S"
  ],
  [
   " T",
   "he"
  ],
  [
   "a",
   "n"
  ],
  [
   "i",
   "m"
  ],
  [
   "o",
   "r"
  ],
  [
   "o",
   "n"
  ],
  [
   " ",
   "it"
  ],
  [
   " t",
   "h"
  ],
  [
   "l",
   "l"
  ],
  [
   "l",
   "e"
  ],
  [
   " ",
   "H"
  ],
  [
   " he",
   "r"
  ],
  [
   "e",
   "t"
  ],
  [
   "o",
   "t"
  ],
  [
   "i",
   "r"
  ],
  [
   " S",
   "he"
  ],
  [
   "e",
   "s"
  ],
  [
   " H",
   "e"
  ],
  [
   " ",
   "in"
  ],
  [
   "v",
   "er"
  ],
  [
   "u",
   "t"
  ],
  [
   "o",
   "w"
  ],
  [
   " The",
   "y"
  ],
  [
   "c",
   "k"
  ],
  [
   " ",
   "e"
  ],
  [
   "il",
   "y"
  ],
  [
   " ",
   "u"
  ],
  [
   " ",
   "y"
  ],
  [
   "l",
   "d"
  ],
  [
   "o",
   "o"
  ],
  [
   " sa",
   "id"
  ],
  [
   " ",
   "\""
  ],
  [
   "i",
   "g"
  ],
  [
   "a",
   "m"
  ],
  [
   " ",
   "r"
  ],
  [
   " b",
   "e"
  ],
  [
   " s",
   "t"
  ],
  [
   " ",
   "I"
  ],
  [
   "L",
   "ily"
  ],
  [
   "c",
   "e"
  ],
  [
   "it",
   "h"
  ],
  [
   "p",
   "p"
  ],
  [
   "k",
   "e"
  ],
  [
   "v",
   "e"
  ],
  [
   " w",
   "ith"
  ],
  [
   " s",
   "he"
  ],
  [
   "O",
   "n"
  ],
  [
   " o",
   "n"
  ],
  [
   "r",
   "i"
  ],
  [
   " y",
   "ou"
  ],
  [
   "k",
   "ed"
  ],
  [
   " p",
   "l"
  ],
  [
   " o",
   "f"
  ],
  [
   " h",
   "is"
  ],
  [
   "n",
   "t"
  ],
  [
   " s",
   "o"
  ],
  [
   " d",
   "ay"
  ],
  [
   "a",
   "d"
  ],
  [
   "ver",
   "y"
  ],
  [
   " th",
   "at"
  ],
  [
   " ",
   "Lily"
  ],
  [
   " pl",
   "ay"
  ],
  [
   " u",
   "p"
  ],
  [
   " ha",
   "d"
  ],
  [
   " m",
   "om"
  ],
  [
   " the",
   "y"
  ],
  [
   " w",
   "e"
  ],
  [
   "s",
   "t"
  ],
  [
   " ",
   "B"
  ],
  [
   "e",
   "l"
  ],
  [
   " f",
   "or"
  ],
  [
   "m",
   "y"
  ],
  [
   "u",
   "n"
  ],
  [
   "'",
   "s"
  ],
  [
   "ou",
   "ld"
  ],
  [
   " l",
   "i"
  ],
  [
   " ha",
   "pp"
  ],
  [
   "T",
   "he"
  ],
  [
   "en",
   "t"
  ],
  [
   "c",
   "h"
  ],
  [
   "it",
   "t"
  ],
  [
   " wa",
   "nt"
  ],
  [
   "he",
   "r"
  ],
  [
   "ou",
   "t"
  ],
  [
   " s",
   "h"
  ],
  [
   " d",
   "o"
  ],
  [
   "e",
   "nd"
  ],
  [
   "a",
   "ll"
  ],
  [
   "om",
   "e"
  ],
  [
   "s",
   "e"
  ],
  [
   " n",
   "ot"
  ],
  [
   " ",
   "very"
  ],
  [
   "ou",
   "nd"
  ],
  [
   "l",
   "y"
  ],
  [
   "im",
   "e"
  ],
  [
   "itt",
   "le"
  ],
  [
   " t",
   "ime"
  ],
  [
   " ",
   "k"
  ],
  [
   " w",
   "h"
  ],
  [
   " l",
   "ittle"
  ],
  [
   " the",
   "re"
  ],
  [
   " n",
   "e"
  ],
  [
   " b",
   "ig"
  ],
  [
   "h",
   "t"
  ],
  [
   " happ",
   "y"
  ],
  [
   "a",
   "l"
  ],
  [
   " ",
   "is"
  ],
  [
   " ",
   "M"
  ],
  [
   " ",
   "re"
  ],
  [
   " s",
   "m"
  ],
  [
   "ri",
   "end"
  ],
  [
   " f",
   "riend"
  ],
  [
   " I",
   "t"
  ],
  [
   " sa",
   "w"
  ],
  [
   " b",
   "ut"
  ],
  [
   ".",
   "\""
  ],
  [
   "r",
   "a"
  ],
  [
   " a",
   "n"
  ],
  [
   " a",
   "s"
  ],
  [
   "r",
   "y"
  ],
  [
   "a",
   "ck"
  ],
  [
   "On",
   "e"
  ],
  [
   "id",
   "e"
  ],
  [
   "v",
   "ed"
  ],
  [
   "a",
   "ke"
  ],
  [
   "'",
   "t"
  ],
  [
   "u",
   "g"
  ],
  [
   "!",
   "\""
  ],
  [
   " l",
   "o"
  ],
  [
   "t",
   "er"
  ],
  [
   " l",
   "oo"
  ],
  [
   "On",
   "ce"
  ],
  [
   " T",
   "im"
  ],
  [
   " we",
   "re"
  ],
  [
   "o",
   "re"
  ],
  [
   " s",
   "e"
  ],
  [
   " to",
   "o"
  ],
  [
   " b",
   "o"
  ],
  [
   " h",
   "im"
  ],
  [
   " g",
   "o"
  ],
  [
   "e",
   "c"
  ],
  [
   " up",
   "on"
  ],
  [
   " a",
   "re"
  ],
  [
   "il",
   "l"
  ],
  [
   " want",
   "ed"
  ],
  [
   "ir",
   "l"
  ],
  [
   "ar",
   "d"
  ],
  [
   " ",
   "j"
  ],
  [
   " the",
   "m"
  ],
  [
   " g",
   "irl"
  ],
  [
   " ",
   "out"
  ],
  [
   "i",
   "nd"
  ],
  [
   " a",
   "t"
  ],
  [
   " the",
   "ir"
  ],
  [
   "f",
   "u"
  ],
  [
   "w",
   "ay"
  ],
  [
   "u",
   "r"
  ],
  [
   " d",
   "id"
  ],
  [
   " ",
   "A"
  ],
  [
   "he",
   "n"
  ],
  [
   " s",
   "p"
  ],
  [
   " c",
   "ould"
  ],
  [
   " sm",
   "il"
  ],
  [
   " ha",
   "ve"
  ],
  [
   "a",
   "in"
  ],
  [
   " w",
   "ent"
  ],
  [
   " n",
   "am"
  ],
  [
   "ar",
   "t"
  ],
  [
   "he",
   "d"
  ],
  [
   "r",
   "om"
  ],
  [
   "l",
   "p"
  ],
  [
   " B",
   "en"
  ],
  [
   " e",
   "x"
  ],
  [
   " c",
   "an"
  ],
  [
   "i",
   "c"
  ],
  [
   "r",
   "ound"
  ],
  [
   " friend",
   "s"
  ],
  [
   "?",
   "\""
  ],
  [
   " he",
   "lp"
  ],
  [
   "oo",
   "d"
  ],
  [
   " ",
   "J"
  ],
  [
   "fu",
   "l"
  ],
  [
   " k",
   "n"
  ],
  [
   " a",
   "ll"
  ],
  [
   "h",
   "ing"
  ],
  [
   "ig",
   "ht"
  ],
  [
   "u",
   "m"
  ],
  [
   "ar",
   "k"
  ],
  [
   "on",
   "e"
  ],
  [
   " b",
   "ack"
  ],
  [
   " nam",
   "ed"
  ],
  [
   " f",
   "un"
  ],
  [
   "a",
   "re"
  ],
  [
   "Y",
   "ou"
  ],
  [
   " c",
   "l"
  ],
  [
   " s",
   "ay"
  ],
  [
   " l",
   "e"
  ],
  [
   " n",
   "o"
  ],
  [
   " T",
   "om"
  ],
  [
   " lo",
   "ved"
  ],
  [
   "o",
   "p"
  ],
  [
   " Tim",
   "my"
  ],
  [
   " ",
   "One"
  ],
  [
   "el",
   "t"
  ],
  [
   "ou",
   "g"
  ],
  [
   " s",
   "c"
  ],
  [
   " to",
   "y"
  ],
  [
   " f",
   "elt"
  ],
  [
   " smil",
   "ed"
  ],
  [
   " a",
   "l"
  ],
  [
   " as",
   "ked"
  ],
  [
   "s",
   "ide"
  ],
  [
   "i",
   "ck"
  ],
  [
   " li",
   "ke"
  ],
  [
   " f",
   "e"
  ],
  [
   " loo",
   "ked"
  ],
  [
   "am",
   "e"
  ],
  [
   " m",
   "an"
  ],
  [
   " se",
   "e"
  ],
  [
   " b",
   "ir"
  ],
  [
   "g",
   "et"
  ],
  [
   " r",
   "o"
  ],
  [
   " m",
   "e"
  ],
  [
   " ",
   "W"
  ],
  [
   " a",
   "round"
  ],
  [
   " s",
   "ome"
  ],
  [
   "u",
   "re"
  ],
  [
   " b",
   "r"
  ],
  [
   "om",
   "et"
  ],
  [
   " bo",
   "y"
  ],
  [
   " bir",
   "d"
  ],
  [
   "on",
   "g"
  ],
  [
   " w",
   "ould"
  ],
  [
   "i",
   "ce"
  ],
  [
   "a",
   "s"
  ],
  [
   " st",
   "art"
  ],
  [
   " w",
   "or"
  ],
  [
   "d",
   "d"
  ],
  [
   " a",
   "g"
  ],
  [
   "get",
   "her"
  ],
  [
   " t",
   "re"
  ],
  [
   ",",
   "\""
  ],
  [
   " s",
   "omet"
  ],
  [
   "ad",
   "e"
  ],
  [
   "ing",
   "s"
  ],
  [
   "a",
   "g"
  ],
  [
   " f",
   "a"
  ],
  [
   " m",
   "ake"
  ],
  [
   "ow",
   "n"
  ],
  [
   " B",
   "ut"
  ],
  [
   " wh",
   "at"
  ],
  [
   "k",
   "ing"
  ],
  [
   " a",
   "way"
  ],
  [
   " to",
   "gether"
  ],
  [
   " ",
   "You"
  ],
  [
   " start",
   "ed"
  ],
  [
   " r",
   "an"
  ],
  [
   "ou",
   "d"
  ],
  [
   " p",
   "ark"
  ],
  [
   "ar",
   "ed"
  ],
  [
   "i",
   "e"
  ],
  [
   " m",
   "ade"
  ],
  [
   " say",
   "s"
  ],
  [
   "i",
   "f"
  ],
  [
   " sa",
   "d"
  ],
  [
   " c",
   "o"
  ],
  [
   " somet",
   "hing"
  ],
  [
   " p",
   "ut"
  ],
  [
   " o",
   "t"
  ],
  [
   " ne",
   "w"
  ],
  [
   "it",
   "ed"
  ],
  [
   " c",
   "ar"
  ],
  [
   "e",
   "ll"
  ],
  [
   " ot",
   "her"
  ],
  [
   " p",
   "r"
  ],
  [
   "b",
   "le"
  ],
  [
   " ag",
   "ain"
  ],
  [
   " f",
   "rom"
  ],
  [
   " g",
   "ood"
  ],
  [
   " h",
   "ug"
  ],
  [
   " m",
   "u"
  ],
  [
   " h",
   "ome"
  ],
  [
   " ex",
   "c"
  ],
  [
   "oo",
   "k"
  ],
  [
   " w",
   "hen"
  ],
  [
   " f",
   "l"
  ],
  [
   " l",
   "a"
  ],
  [
   " ",
   "L"
  ],
  [
   "ri",
   "ed"
  ],
  [
   " f",
   "ound"
  ],
  [
   "es",
   "t"
  ],
  [
   "e",
   "p"
  ],
  [
   "s",
   "s"
  ],
  [
   " wh",
   "o"
  ],
  [
   "a",
   "ch"
  ],
  [
   "oug",
   "ht"
  ],
  [
   "h",
   "at"
  ],
  [
   "pp",
   "ed"
  ],
  [
   "u",
   "e"
  ],
  [
   " the",
   "n"
  ],
  [
   " play",
   "ing"
  ],
  [
   " c",
   "h"
  ],
  [
   " d",
   "ec"
  ],
  [
   " wa",
   "l"
  ],
  [
   " s",
   "w"
  ],
  [
   " g",
   "et"
  ],
  [
   "p",
   "l"
  ],
  [
   "ou",
   "s"
  ],
  [
   " th",
   "ings"
  ],
  [
   "u",
   "ck"
  ],
  [
   " g",
   "ot"
  ],
  [
   "all",
   "y"
  ],
  [
   "r",
   "o"
  ],
  [
   "n",
   "y"
  ],
  [
   " b",
   "l"
  ],
  [
   "a",
   "ve"
  ],
  [
   " li",
   "ked"
  ],
  [
   " do",
   "g"
  ],
  [
   " ",
   "E"
  ],
  [
   " exc",
   "ited"
  ],
  [
   " c",
   "ame"
  ],
  [
   "a",
   "x"
  ],
  [
   " e",
   "very"
  ],
  [
   " be",
   "c"
  ],
  [
   " you",
   "r"
  ],
  [
   " dec",
   "id"
  ],
  [
   " decid",
   "ed"
  ],
  [
   " d",
   "own"
  ],
  [
   "n",
   "a"
  ],
  [
   "ou",
   "se"
  ],
  [
   " f",
   "ind"
  ],
  [
   "u",
   "st"
  ],
  [
   " c",
   "are"
  ],
  [
   " ",
   "v"
  ],
  [
   " d",
   "ad"
  ],
  [
   " ",
   "D"
  ],
  [
   " fe",
   "el"
  ],
  [
   "is",
   "t"
  ],
  [
   " sc",
   "ared"
  ],
  [
   " on",
   "e"
  ],
  [
   "ar",
   "a"
  ],
  [
   " a",
   "b"
  ],
  [
   " th",
   "an"
  ],
  [
   "u",
   "dd"
  ],
  [
   "The",
   "y"
  ],
  [
   " tre",
   "e"
  ],
  [
   " t",
   "a"
  ],
  [
   " M",
   "om"
  ],
  [
   " m",
   "y"
  ],
  [
   "q",
   "u"
  ],
  [
   "way",
   "s"
  ],
  [
   "ou",
   "r"
  ],
  [
   " did",
   "n"
  ],
  [
   " w",
   "ill"
  ],
  [
   "u",
   "s"
  ],
  [
   "ar",
   "n"
  ],
  [
   " toy",
   "s"
  ],
  [
   " ",
   "F"
  ],
  [
   "n",
   "na"
  ],
  [
   " too",
   "k"
  ],
  [
   " al",
   "ways"
  ],
  [
   "er",
   "s"
  ],
  [
   " g",
   "ra"
  ],
  [
   " ab",
   "out"
  ],
  [
   " p",
   "o"
  ],
  [
   " b",
   "all"
  ],
  [
   " mom",
   "my"
  ],
  [
   "es",
   "s"
  ],
  [
   "an",
   "t"
  ],
  [
   " th",
   "ought"
  ],
  [
   "nd",
   "er"
  ],
  [
   " kn",
   "e"
  ],
  [
   " loo",
   "k"
  ],
  [
   " ",
   "ke"
  ],
  [
   " l",
   "ot"
  ],
  [
   "it",
   "e"
  ],
  [
   "f",
   "e"
  ],
  [
   "is",
   "e"
  ],
  [
   " out",
   "side"
  ],
  [
   "g",
   "ed"
  ],
  [
   "b",
   "b"
  ],
  [
   "c",
   "hed"
  ],
  [
   " m",
   "ore"
  ],
  [
   " le",
   "arn"
  ],
  [
   "re",
   "t"
  ],
  [
   "a",
   "p"
  ],
  [
   " in",
   "t"
  ],
  [
   " kn",
   "ow"
  ],
  [
   "en",
   "ed"
  ],
  [
   " h",
   "o"
  ],
  [
   " M",
   "ax"
  ],
  [
   " c",
   "at"
  ],
  [
   " la",
   "ug"
  ],
  [
   "ec",
   "i"
  ],
  [
   " o",
   "ld"
  ],
  [
   " t",
   "ake"
  ],
  [
   " S",
   "am"
  ],
  [
   " s",
   "or"
  ],
  [
   "f",
   "ter"
  ],
  [
   " kne",
   "w"
  ],
  [
   " an",
   "y"
  ],
  [
   "i",
   "a"
  ],
  [
   "i",
   "ve"
  ],
  [
   "udd",
   "en"
  ],
  [
   "m",
   "a"
  ],
  [
   " h",
   "ow"
  ],
  [
   " t",
   "r"
  ],
  [
   " p",
   "e"
  ],
  [
   "eci",
   "al"
  ],
  [
   " sp",
   "ecial"
  ],
  [
   "a",
   "u"
  ],
  [
   " sh",
   "ow"
  ],
  [
   "udden",
   "ly"
  ],
  [
   " h",
   "ouse"
  ],
  [
   " s",
   "l"
  ],
  [
   " mu",
   "ch"
  ],
  [
   "B",
   "ut"
  ],
  [
   "a",
   "nd"
  ],
  [
   " r",
   "un"
  ],
  [
   " sor",
   "ry"
  ],
  [
   "is",
   "h"
  ],
  [
   "v",
   "en"
  ],
  [
   " s",
   "un"
  ],
  [
   " to",
   "ld"
  ],
  [
   " o",
   "r"
  ],
  [
   "an",
   "k"
  ],
  [
   " t",
   "w"
  ],
  [
   " ha",
   "nd"
  ],
  [
   " o",
   "p"
  ],
  [
   " m",
   "o"
  ],
  [
   " play",
   "ed"
  ],
  [
   " s",
   "k"
  ],
  [
   "in",
   "k"
  ],
  [
   " int",
   "o"
  ],
  [
   " wa",
   "ter"
  ],
  [
   " g",
   "ave"
  ],
  [
   " t",
   "ried"
  ],
  [
   " cl",
   "o"
  ],
  [
   "t",
   "y"
  ],
  [
   " e",
   "at"
  ],
  [
   "au",
   "se"
  ],
  [
   " pr",
   "oud"
  ],
  [
   " in",
   "side"
  ],
  [
   "ot",
   "her"
  ],
  [
   " ",
   "if"
  ],
  [
   "at",
   "e"
  ],
  [
   " o",
   "ver"
  ],
  [
   " ro",
   "om"
  ],
  [
   " ",
   "en"
  ],
  [
   " could",
   "n"
  ],
  [
   " W",
   "e"
  ],
  [
   "um",
   "p"
  ],
  [
   " ne",
   "ver"
  ],
  [
   "et",
   "ter"
  ],
  [
   " he",
   "ard"
  ],
  [
   " p",
   "ick"
  ],
  [
   "d",
   "y"
  ],
  [
   "g",
   "e"
  ],
  [
   " g",
   "re"
  ],
  [
   "o",
   "b"
  ],
  [
   " hug",
   "ged"
  ],
  [
   "T",
   "om"
  ],
  [
   " ex",
   "pl"
  ],
  [
   " bec",
   "ause"
  ],
  [
   "i",
   "on"
  ],
  [
   " wa",
   "t"
  ],
  [
   "a",
   "ce"
  ],
  [
   " st",
   "r"
  ],
  [
   " p",
   "ret"
  ],
  [
   " bo",
   "x"
  ],
  [
   " e",
   "ach"
  ],
  [
   " j",
   "ust"
  ],
  [
   " A",
   "nna"
  ],
  [
   " th",
   "is"
  ],
  [
   "a",
   "k"
  ],
  [
   " ne",
   "ed"
  ],
  [
   " sm",
   "all"
  ],
  [
   " b",
   "u"
  ],
  [
   "M",
   "om"
  ],
  [
   "il",
   "e"
  ],
  [
   " E",
   "very"
  ],
  [
   " S",
   "ara"
  ],
  [
   "he",
   "re"
  ],
  [
   " man",
   "y"
  ],
  [
   " c",
   "om"
  ],
  [
   "ot",
   "h"
  ],
  [
   " n",
   "ice"
  ],
  [
   "u",
   "c"
  ],
  [
   " l",
   "ong"
  ],
  [
   " f",
   "o"
  ],
  [
   " ",
   "qu"
  ],
  [
   "s",
   "ed"
  ],
  [
   "'",
   "m"
  ],
  [
   "i",
   "z"
  ],
  [
   "b",
   "y"
  ],
  [
   "ur",
   "t"
  ],
  [
   "im",
   "al"
  ],
  [
   " an",
   "imal"
  ],
  [
   " be",
   "ar"
  ],
  [
   "v",
   "ing"
  ],
  [
   " of",
   "f"
  ],
  [
   "il",
   "d"
  ],
  [
   "g",
   "ry"
  ],
  [
   " t",
   "ry"
  ],
  [
   "or",
   "t"
  ],
  [
   " learn",
   "ed"
  ],
  [
   "oug",
   "h"
  ],
  [
   "in",
   "e"
  ],
  [
   " b",
   "etter"
  ],
  [
   " u",
   "nt"
  ],
  [
   "s",
   "el"
  ],
  [
   " lo",
   "ve"
  ],
  [
   "f",
   "t"
  ],
  [
   " J",
   "ack"
  ],
  [
   " unt",
   "il"
  ],
  [
   " c",
   "all"
  ],
  [
   "e",
   "m"
  ],
  [
   "Y",
   "es"
  ],
  [
   " fl",
   "ow"
  ],
  [
   " k",
   "ind"
  ],
  [
   " b",
   "est"
  ],
  [
   " ",
   "C"
  ],
  [
   " c",
   "le"
  ],
  [
   " e",
   "nd"
  ],
  [
   " ",
   "im"
  ],
  [
   " d",
   "re"
  ],
  [
   "T",
   "h"
  ],
  [
   " A",
   "nd"
  ],
  [
   " p",
   "u"
  ],
  [
   " J",
   "o"
  ],
  [
   " s",
   "n"
  ],
  [
   " M",
   "ia"
  ],
  [
   "ar",
   "s"
  ],
  [
   " H",
   "er"
  ],
  [
   " d",
   "on"
  ],
  [
   "ll",
   "y"
  ],
  [
   "a",
   "ut"
  ],
  [
   "ur",
   "n"
  ],
  [
   "b",
   "er"
  ],
  [
   " care",
   "ful"
  ],
  [
   "ad",
   "y"
  ],
  [
   " g",
   "r"
  ],
  [
   "H",
   "e"
  ],
  [
   " a",
   "d"
  ],
  [
   " S",
   "o"
  ],
  [
   " e",
   "ven"
  ],
  [
   " f",
   "i"
  ],
  [
   " c",
   "he"
  ],
  [
   "v",
   "es"
  ],
  [
   "v",
   "ent"
  ],
  [
   " than",
   "ked"
  ],
  [
   " be",
   "aut"
  ],
  [
   " b",
   "ra"
  ],
  [
   " sk",
   "y"
  ],
  [
   " laug",
   "hed"
  ],
  [
   " fa",
   "st"
  ],
  [
   "le",
   "w"
  ],
  [
   " g",
   "ard"
  ],
  [
   "ur",
   "p"
  ],
  [
   " j",
   "ump"
  ],
  [
   " gard",
   "en"
  ],
  [
   "in",
   "y"
  ],
  [
   " b",
   "y"
  ],
  [
   " t",
   "e"
  ],
  [
   "p",
   "t"
  ],
  [
   "sel",
   "f"
  ],
  [
   "o",
   "y"
  ],
  [
   " l",
   "ist"
  ],
  [
   " h",
   "urt"
  ],
  [
   " g",
   "l"
  ],
  [
   " lot",
   "s"
  ],
  [
   " st",
   "ill"
  ],
  [
   " beaut",
   "i"
  ],
  [
   "a",
   "se"
  ],
  [
   " l",
   "oud"
  ],
  [
   "I",
   "t"
  ],
  [
   " beauti",
   "ful"
  ],
  [
   " F",
   "rom"
  ],
  [
   " animal",
   "s"
  ],
  [
   "w",
   "n"
  ],
  [
   " wa",
   "y"
  ],
  [
   " h",
   "ard"
  ],
  [
   " c",
   "ome"
  ],
  [
   " li",
   "ved"
  ],
  [
   "i",
   "es"
  ],
  [
   "c",
   "t"
  ],
  [
   "r",
   "m"
  ],
  [
   " w",
   "o"
  ],
  [
   " u",
   "nder"
  ],
  [
   " f",
   "am"
  ],
  [
   " H",
   "is"
  ],
  [
   "h",
   "n"
  ],
  [
   "oo",
   "l"
  ],
  [
   "T",
   "im"
  ],
  [
   "he",
   "s"
  ],
  [
   " r",
   "a"
  ],
  [
   " co",
   "l"
  ],
  [
   " l",
   "et"
  ],
  [
   " c",
   "u"
  ],
  [
   "b",
   "e"
  ],
  [
   "n",
   "ing"
  ],
  [
   "uc",
   "y"
  ],
  [
   "o",
   "ck"
  ],
  [
   "ec",
   "t"
  ],
  [
   " re",
   "m"
  ],
  [
   " b",
   "oth"
  ],
  [
   "k",
   "ay"
  ],
  [
   " sa",
   "fe"
  ],
  [
   "ig",
   "h"
  ],
  [
   " The",
   "n"
  ],
  [
   " it",
   "s"
  ],
  [
   " d",
   "an"
  ],
  [
   " f",
   "lew"
  ],
  [
   " im",
   "p"
  ],
  [
   " bra",
   "ve"
  ],
  [
   "an",
   "e"
  ],
  [
   " b",
   "ad"
  ],
  [
   " call",
   "ed"
  ],
  [
   " st",
   "ay"
  ],
  [
   "a",
   "st"
  ],
  [
   " st",
   "or"
  ],
  [
   " b",
   "ook"
  ],
  [
   " tw",
   "o"
  ],
  [
   " f",
   "ly"
  ],
  [
   "W",
   "hen"
  ],
  [
   "re",
   "e"
  ],
  [
   " sh",
   "ould"
  ],
  [
   " do",
   "ll"
  ],
  [
   " wal",
   "ked"
  ],
  [
   "op",
   "le"
  ],
  [
   " f",
   "in"
  ],
  [
   "is",
   "hed"
  ],
  [
   " r",
   "ed"
  ],
  [
   " cle",
   "an"
  ],
  [
   " d",
   "ra"
  ],
  [
   " p",
   "ic"
  ],
  [
   "L",
   "et"
  ],
  [
   " an",
   "gry"
  ],
  [
   "dd",
   "ed"
  ],
  [
   "ag",
   "e"
  ],
  [
   " ro",
   "ck"
  ],
  [
   " fam",
   "ily"
  ],
  [
   "x",
   "t"
  ],
  [
   "i",
   "p"
  ],
  [
   "urp",
   "r"
  ],
  [
   "l",
   "ed"
  ],
  [
   " sh",
   "are"
  ],
  [
   " W",
   "hen"
  ],
  [
   " s",
   "urpr"
  ],
  [
   " pe",
   "ople"
  ],
  [
   " ",
   "P"
  ],
  [
   "il",
   "ly"
  ],
  [
   " so",
   "on"
  ],
  [
   "f",
   "ore"
  ],
  [
   "N",
   "o"
  ],
  [
   " pret",
   "ty"
  ],
  [
   " sh",
   "iny"
  ],
  [
   " f",
   "ore"
  ],
  [
   " w",
   "ind"
  ],
  [
   " g",
   "round"
  ],
  [
   " go",
   "ing"
  ],
  [
   " ",
   "“"
  ],
  [
   "B",
   "en"
  ],
  [
   " c",
   "on"
  ],
  [
   " n",
   "ow"
  ],
  [
   "um",
   "my"
  ],
  [
   " ke",
   "pt"
  ],
  [
   " st",
   "o"
  ],
  [
   "ar",
   "y"
  ],
  [
   "o",
   "on"
  ],
  [
   "is",
   "ed"
  ],
  [
   "i",
   "ed"
  ],
  [
   " do",
   "or"
  ],
  [
   "e",
   "et"
  ],
  [
   " no",
   "ise"
  ],
  [
   " c",
   "ry"
  ],
  [
   " ke",
   "ep"
  ],
  [
   "t",
   "ure"
  ],
  [
   " ad",
   "vent"
  ],
  [
   "W",
   "hat"
  ],
  [
   " f",
   "ar"
  ],
  [
   " e",
   "y"
  ],
  [
   " expl",
   "ore"
  ],
  [
   " ",
   "ide"
  ],
  [
   " op",
   "ened"
  ],
  [
   " no",
   "dded"
  ],
  [
   " be",
   "fore"
  ],
  [
   " tr",
   "uck"
  ],
  [
   "f",
   "f"
  ],
  [
   " t",
   "urn"
  ],
  [
   " L",
   "ucy"
  ],
  [
   " wh",
   "ile"
  ],
  [
   " f",
   "r"
  ],
  [
   " col",
   "or"
  ],
  [
   " re",
   "al"
  ],
  [
   "im",
   "b"
  ],
  [
   "T",
   "hat"
  ],
  [
   " cl",
   "imb"
  ],
  [
   " feel",
   "ing"
  ],
  [
   " pick",
   "ed"
  ],
  [
   " c",
   "re"
  ],
  [
   " b",
   "ed"
  ],
  [
   "t",
   "hing"
  ],
  [
   " ide",
   "a"
  ],
  [
   " ne",
   "xt"
  ],
  [
   "h",
   "y"
  ],
  [
   "ay",
   "be"
  ],
  [
   " pic",
   "ture"
  ],
  [
   "s",
   "o"
  ],
  [
   "Th",
   "ank"
  ],
  [
   " th",
   "r"
  ],
  [
   " w",
   "r"
  ],
  [
   "le",
   "s"
  ],
  [
   " al",
   "so"
  ],
  [
   "g",
   "er"
  ],
  [
   " u",
   "n"
  ],
  [
   " ",
   "G"
  ],
  [
   "k",
   "es"
  ],
  [
   "u",
   "ch"
  ],
  [
   "t",
   "ing"
  ],
  [
   " smil",
   "e"
  ],
  [
   "ic",
   "ed"
  ],
  [
   " wa",
   "it"
  ],
  [
   "em",
   "ber"
  ],
  [
   " ha",
   "s"
  ],
  [
   " wal",
   "king"
  ],
  [
   "i",
   "ous"
  ],
  [
   " to",
   "w"
  ],
  [
   " advent",
   "ure"
  ],
  [
   " j",
   "o"
  ],
  [
   "j",
   "oy"
  ],
  [
   " clo",
   "s"
  ],
  [
   " sto",
   "pped"
  ],
  [
   " t",
   "ra"
  ],
  [
   " list",
   "en"
  ],
  [
   "t",
   "ed"
  ],
  [
   " m",
   "a"
  ],
  [
   " re",
   "pl"
  ],
  [
   " be",
   "ing"
  ],
  [
   "ug",
   "ht"
  ],
  [
   " a",
   "fter"
  ],
  [
   " ey",
   "es"
  ],
  [
   " f",
   "ood"
  ],
  [
   " hand",
   "s"
  ],
  [
   " wal",
   "k"
  ],
  [
   " S",
   "ue"
  ],
  [
   " gre",
   "at"
  ],
  [
   " wat",
   "ch"
  ],
  [
   " bl",
   "ue"
  ],
  [
   " rem",
   "ember"
  ],
  [
   " S",
   "uddenly"
  ],
  [
   "a",
   "c"
  ],
  [
   " d",
   "el"
  ],
  [
   " sl",
   "ide"
  ],
  [
   " loo",
   "king"
  ],
  [
   " g",
   "ive"
  ],
  [
   " d",
   "if"
  ],
  [
   " f",
   "ish"
  ],
  [
   " str",
   "ong"
  ],
  [
   "a",
   "ble"
  ],
  [
   "ma",
   "z"
  ],
  [
   " en",
   "joy"
  ],
  [
   " e",
   "ver"
  ],
  [
   " a",
   "maz"
  ],
  [
   " flow",
   "ers"
  ],
  [
   " d",
   "is"
  ],
  [
   " th",
   "ink"
  ],
  [
   " S",
   "p"
  ],
  [
   "S",
   "uddenly"
  ],
  [
   "S",
   "he"
  ],
  [
   " not",
   "iced"
  ],
  [
   " b",
   "re"
  ],
  [
   " as",
   "k"
  ],
  [
   " t",
   "al"
  ],
  [
   " v",
   "o"
  ],
  [
   "ll",
   "ow"
  ],
  [
   " br",
   "o"
  ],
  [
   " repl",
   "ied"
  ],
  [
   "iz",
   "ed"
  ],
  [
   " o",
   "wn"
  ],
  [
   " fore",
   "st"
  ],
  [
   " s",
   "ound"
  ],
  [
   " a",
   "pp"
  ],
  [
   " u",
   "s"
  ],
  [
   " B",
   "ob"
  ],
  [
   " D",
   "ad"
  ],
  [
   " qu",
   "ick"
  ],
  [
   " o",
   "kay"
  ],
  [
   "ir",
   "st"
  ],
  [
   " r",
   "ain"
  ],
  [
   " sh",
   "out"
  ],
  [
   " show",
   "ed"
  ],
  [
   " wo",
   "nder"
  ],
  [
   "c",
   "o"
  ],
  [
   " ne",
   "ar"
  ],
  [
   " wor",
   "k"
  ],
  [
   "bb",
   "it"
  ],
  [
   " r",
   "ight"
  ],
  [
   "by",
   "e"
  ],
  [
   " ",
   "R"
  ],
  [
   " bec",
   "ame"
  ],
  [
   "g",
   "an"
  ],
  [
   " imp",
   "ort"
  ],
  [
   " a",
   "c"
  ],
  [
   " he",
   "ad"
  ],
  [
   " fo",
   "llow"
  ],
  [
   " ",
   "N"
  ],
  [
   " y",
   "ell"
  ],
  [
   "W",
   "e"
  ],
  [
   " me",
   "an"
  ],
  [
   "le",
   "ase"
  ],
  [
   " every",
   "one"
  ],
  [
   " bo",
   "at"
  ],
  [
   " m",
   "or"
  ],
  [
   " st",
   "ick"
  ],
  [
   " import",
   "ant"
  ],
  [
   " u",
   "se"
  ],
  [
   " pl",
   "ace"
  ],
  [
   " ra",
   "bbit"
  ],
  [
   " h",
   "igh"
  ],
  [
   " a",
   "m"
  ],
  [
   "an",
   "ge"
  ],
  [
   " d",
   "e"
  ],
  [
   "L",
   "ook"
  ],
  [
   " ",
   "our"
  ],
  [
   "at",
   "h"
  ],
  [
   " w",
   "here"
  ],
  [
   "d",
   "ay"
  ],
  [
   " wat",
   "ched"
  ],
  [
   "bb",
   "ed"
  ],
  [
   " br",
   "ight"
  ],
  [
   " a",
   "r"
  ],
  [
   " cu",
   "ri"
  ],
  [
   " bl",
   "ock"
  ],
  [
   "fe",
   "re"
  ],
  [
   "S",
   "o"
  ],
  [
   "er",
   "ed"
  ],
  [
   " dif",
   "fere"
  ],
  [
   "nd",
   "ma"
  ],
  [
   " quick",
   "ly"
  ],
  [
   "a",
   "ught"
  ],
  [
   " m",
   "ag"
  ],
  [
   " good",
   "bye"
  ],
  [
   " be",
   "en"
  ],
  [
   "le",
   "ep"
  ],
  [
   " h",
   "op"
  ],
  [
   "il",
   "a"
  ],
  [
   " clos",
   "er"
  ],
  [
   " fa",
   "ce"
  ],
  [
   " curi",
   "ous"
  ],
  [
   " y",
   "e"
  ],
  [
   " vo",
   "ice"
  ],
  [
   " st",
   "ore"
  ],
  [
   "n",
   "g"
  ],
  [
   " dre",
   "ss"
  ],
  [
   " Sp",
   "ot"
  ],
  [
   "it",
   "c"
  ],
  [
   " p",
   "ain"
  ],
  [
   " any",
   "m"
  ],
  [
   " anym",
   "ore"
  ],
  [
   " s",
   "ure"
  ],
  [
   " c",
   "ook"
  ],
  [
   " op",
   "en"
  ],
  [
   "H",
   "er"
  ],
  [
   " wa",
   "rm"
  ],
  [
   " ch",
   "ild"
  ],
  [
   " do",
   "es"
  ],
  [
   "S",
   "ara"
  ],
  [
   " be",
   "l"
  ],
  [
   " for",
   "g"
  ],
  [
   " c",
   "ake"
  ],
  [
   " t",
   "ell"
  ],
  [
   "C",
   "an"
  ],
  [
   " differe",
   "nt"
  ],
  [
   " Mom",
   "my"
  ],
  [
   "A",
   "nna"
  ],
  [
   " T",
   "h"
  ],
  [
   "ir",
   "ed"
  ],
  [
   "a",
   "ched"
  ],
  [
   " c",
   "ou"
  ],
  [
   " Jo",
   "hn"
  ],
  [
   " stor",
   "y"
  ],
  [
   "u",
   "ll"
  ],
  [
   " fa",
   "v"
  ],
  [
   " f",
   "irst"
  ],
  [
   " sw",
   "eet"
  ],
  [
   " help",
   "ed"
  ],
  [
   " fe",
   "ll"
  ],
  [
   "im",
   "es"
  ],
  [
   " fi",
   "re"
  ],
  [
   "u",
   "ff"
  ],
  [
   " n",
   "ight"
  ],
  [
   " ",
   "z"
  ],
  [
   " p",
   "er"
  ],
  [
   " but",
   "ter"
  ],
  [
   " con",
   "t"
  ],
  [
   " he",
   "re"
  ],
  [
   " se",
   "es"
  ],
  [
   " th",
   "ree"
  ],
  [
   " k",
   "itc"
  ],
  [
   " kitc",
   "hen"
  ],
  [
   " pu",
   "ll"
  ],
  [
   "is",
   "y"
  ],
  [
   " r",
   "u"
  ],
  [
   " le",
   "a"
  ],
  [
   " b",
   "us"
  ],
  [
   " dra",
   "w"
  ],
  [
   "A",
   "fter"
  ],
  [
   "J",
   "o"
  ],
  [
   "un",
   "ny"
  ],
  [
   " b",
   "it"
  ],
  [
   "pp",
   "y"
  ],
  [
   "is",
   "s"
  ],
  [
   " bird",
   "s"
  ],
  [
   " happ",
   "ened"
  ],
  [
   " jump",
   "ed"
  ],
  [
   " br",
   "other"
  ],
  [
   " D",
   "o"
  ],
  [
   "n",
   "er"
  ],
  [
   " fl",
   "o"
  ],
  [
   " s",
   "ing"
  ],
  [
   " st",
   "op"
  ],
  [
   " k",
   "id"
  ],
  [
   " J",
   "ane"
  ],
  [
   " so",
   "ft"
  ],
  [
   " be",
   "h"
  ],
  [
   "in",
   "s"
  ],
  [
   " gl",
   "ad"
  ],
  [
   " L",
   "et"
  ],
  [
   " g",
   "ame"
  ],
  [
   " d",
   "r"
  ],
  [
   " pr",
   "in"
  ],
  [
   " on",
   "ly"
  ],
  [
   " sa",
   "nd"
  ],
  [
   "'",
   "re"
  ],
  [
   "z",
   "y"
  ],
  [
   " gra",
   "ss"
  ],
  [
   " m",
   "on"
  ],
  [
   " re",
   "st"
  ],
  [
   " wor",
   "ld"
  ],
  [
   " m",
   "ess"
  ],
  [
   " c",
   "ra"
  ],
  [
   " gra",
   "bbed"
  ],
  [
   " re",
   "ached"
  ],
  [
   " ha",
   "ving"
  ],
  [
   " at",
   "e"
  ],
  [
   " c",
   "ut"
  ],
  [
   " h",
   "at"
  ],
  [
   "nt",
   "s"
  ],
  [
   " shout",
   "ed"
  ],
  [
   " A",
   "s"
  ],
  [
   " y",
   "ummy"
  ],
  [
   "o",
   "lly"
  ],
  [
   " thr",
   "ough"
  ],
  [
   "at",
   "er"
  ],
  [
   " c",
   "r"
  ],
  [
   " wor",
   "ry"
  ],
  [
   " f",
   "ro"
  ],
  [
   "ak",
   "es"
  ],
  [
   " re",
   "ady"
  ],
  [
   " l",
   "ady"
  ],
  [
   "W",
   "ow"
  ],
  [
   " real",
   "ized"
  ],
  [
   " s",
   "qu"
  ],
  [
   " p",
   "ap"
  ],
  [
   "A",
   "s"
  ],
  [
   " nam",
   "e"
  ],
  [
   "as",
   "s"
  ],
  [
   "i",
   "ent"
  ],
  [
   " C",
   "an"
  ],
  [
   " d",
   "one"
  ],
  [
   " fav",
   "or"
  ],
  [
   " Every",
   "one"
  ],
  [
   " block",
   "s"
  ],
  [
   " favor",
   "ite"
  ],
  [
   " mag",
   "ic"
  ],
  [
   " cat",
   "ch"
  ],
  [
   " th",
   "ing"
  ],
  [
   " re",
   "ally"
  ],
  [
   " fun",
   "ny"
  ],
  [
   " c",
   "ried"
  ],
  [
   " t",
   "ired"
  ],
  [
   "at",
   "her"
  ],
  [
   "Mom",
   "my"
  ],
  [
   "a",
   "ir"
  ],
  [
   " po",
   "nd"
  ],
  [
   " l",
   "ess"
  ],
  [
   " flow",
   "er"
  ],
  [
   "ed",
   "dy"
  ],
  [
   " t",
   "ri"
  ],
  [
   " be",
   "gan"
  ],
  [
   " wa",
   "ved"
  ],
  [
   " b",
   "unny"
  ],
  [
   " p",
   "are"
  ],
  [
   " ta",
   "st"
  ],
  [
   "w",
   "here"
  ],
  [
   "fu",
   "lly"
  ],
  [
   " m",
   "um"
  ],
  [
   "t",
   "h"
  ],
  [
   " under",
   "st"
  ],
  [
   " se",
   "en"
  ],
  [
   " d",
   "in"
  ],
  [
   "ig",
   "n"
  ],
  [
   "D",
   "on"
  ],
  [
   "ard",
   "s"
  ],
  [
   "k",
   "en"
  ],
  [
   " gre",
   "en"
  ],
  [
   " p",
   "us"
  ],
  [
   " look",
   "s"
  ],
  [
   " an",
   "other"
  ],
  [
   "a",
   "isy"
  ],
  [
   " f",
   "ill"
  ],
  [
   " com",
   "ing"
  ],
  [
   " him",
   "self"
  ],
  [
   " p",
   "art"
  ],
  [
   " Sara",
   "h"
  ],
  [
   " butter",
   "f"
  ],
  [
   " kid",
   "s"
  ],
  [
   " fi",
   "x"
  ],
  [
   " ha",
   "ir"
  ],
  [
   " pret",
   "end"
  ],
  [
   "s",
   "h"
  ],
  [
   "Tim",
   "my"
  ],
  [
   " ma",
   "king"
  ],
  [
   "m",
   "er"
  ],
  [
   " p",
   "rom"
  ],
  [
   " c",
   "ool"
  ],
  [
   " sw",
   "ing"
  ],
  [
   " b",
   "a"
  ],
  [
   " Jo",
   "e"
  ],
  [
   " yell",
   "ow"
  ],
  [
   " ho",
   "le"
  ],
  [
   " u",
   "sed"
  ],
  [
   " T",
   "hat"
  ],
  [
   " fro",
   "g"
  ],
  [
   " re",
   "ad"
  ],
  [
   " to",
   "uch"
  ],
  [
   " b",
   "ag"
  ],
  [
   " run",
   "ning"
  ],
  [
   " m",
   "ouse"
  ],
  [
   " surpr",
   "ise"
  ],
  [
   "st",
   "er"
  ],
  [
   "b",
   "o"
  ],
  [
   "u",
   "ed"
  ],
  [
   "el",
   "y"
  ],
  [
   " wh",
   "y"
  ],
  [
   " wor",
   "ked"
  ],
  [
   " d",
   "ro"
  ],
  [
   " beh",
   "ind"
  ],
  [
   " pare",
   "nts"
  ],
  [
   " sw",
   "im"
  ],
  [
   " del",
   "ic"
  ],
  [
   " s",
   "leep"
  ],
  [
   " sm",
   "ell"
  ],
  [
   " l",
   "ight"
  ],
  [
   " remember",
   "ed"
  ],
  [
   " tre",
   "es"
  ],
  [
   " st",
   "e"
  ],
  [
   "i",
   "ke"
  ],
  [
   " happ",
   "ily"
  ],
  [
   " pap",
   "er"
  ],
  [
   " g",
   "i"
  ],
  [
   " co",
   "ld"
  ],
  [
   " w",
   "ood"
  ],
  [
   " ho",
   "pped"
  ],
  [
   " s",
   "et"
  ],
  [
   " sh",
   "o"
  ],
  [
   "one",
   "y"
  ],
  [
   " d",
   "ark"
  ],
  [
   " ho",
   "ld"
  ],
  [
   " d",
   "ri"
  ],
  [
   " Ben",
   "ny"
  ],
  [
   " lo",
   "st"
  ],
  [
   " w",
   "ished"
  ],
  [
   "H",
   "ell"
  ],
  [
   "Hell",
   "o"
  ],
  [
   "at",
   "ion"
  ],
  [
   " f",
   "ull"
  ],
  [
   " dre",
   "am"
  ],
  [
   " s",
   "at"
  ],
  [
   " flo",
   "or"
  ],
  [
   " sl",
   "ow"
  ],
  [
   "en",
   "s"
  ],
  [
   " li",
   "on"
  ],
  [
   " t",
   "all"
  ],
  [
   " to",
   "p"
  ],
  [
   " laug",
   "h"
  ],
  [
   " per",
   "f"
  ],
  [
   " b",
   "ow"
  ],
  [
   "u",
   "l"
  ],
  [
   " bu",
   "y"
  ],
  [
   " less",
   "on"
  ],
  [
   "Jo",
   "hn"
  ],
  [
   " d",
   "uck"
  ],
  [
   " need",
   "ed"
  ],
  [
   " car",
   "s"
  ],
  [
   " care",
   "fully"
  ],
  [
   "i",
   "ver"
  ],
  [
   " mo",
   "ve"
  ],
  [
   " le",
   "ft"
  ],
  [
   "re",
   "l"
  ],
  [
   " do",
   "ing"
  ],
  [
   " p",
   "re"
  ],
  [
   " wind",
   "ow"
  ],
  [
   " enjoy",
   "ed"
  ],
  [
   " ye",
   "ars"
  ],
  [
   " h",
   "ill"
  ],
  [
   " bu",
   "ild"
  ],
  [
   " we",
   "ar"
  ],
  [
   " sn",
   "ow"
  ],
  [
   " butterf",
   "ly"
  ],
  [
   "and",
   "y"
  ],
  [
   "\"",
   "."
  ],
  [
   " li",
   "kes"
  ],
  [
   " he",
   "ld"
  ],
  [
   " her",
   "self"
  ],
  [
   " sp",
   "ot"
  ],
  [
   " than",
   "k"
  ],
  [
   "re",
   "n"
  ],
  [
   "S",
   "am"
  ],
  [
   " A",
   "fter"
  ],
  [
   " any",
   "thing"
  ],
  [
   "c",
   "ess"
  ],
  [
   " h",
   "un"
  ],
  [
   " ",
   "ice"
  ],
  [
   " h",
   "id"
  ],
  [
   " cont",
   "in"
  ],
  [
   " he",
   "ar"
  ],
  [
   " a",
   "ir"
  ],
  [
   " wr",
   "ong"
  ],
  [
   " follow",
   "ed"
  ],
  [
   "as",
   "ure"
  ],
  [
   " ar",
   "ri"
  ],
  [
   " ",
   "-"
  ],
  [
   " fin",
   "ished"
  ],
  [
   " ta",
   "ble"
  ],
  [
   " fa",
   "ir"
  ],
  [
   " I",
   "n"
  ],
  [
   "uff",
   "y"
  ],
  [
   "re",
   "ed"
  ],
  [
   " friend",
   "ly"
  ],
  [
   " b",
   "ug"
  ],
  [
   "in",
   "ed"
  ],
  [
   " d",
   "ir"
  ],
  [
   "or",
   "n"
  ],
  [
   "’",
   "s"
  ],
  [
   " D",
   "aisy"
  ],
  [
   "in",
   "ally"
  ],
  [
   " surpr",
   "ised"
  ],
  [
   " p",
   "lease"
  ],
  [
   " c",
   "ast"
  ],
  [
   " S",
   "ally"
  ],
  [
   " g",
   "ent"
  ],
  [
   "re",
   "am"
  ],
  [
   "d",
   "s"
  ],
  [
   "u",
   "it"
  ],
  [
   "g",
   "on"
  ],
  [
   " child",
   "ren"
  ],
  [
   " t",
   "ight"
  ],
  [
   "as",
   "h"
  ],
  [
   " arri",
   "ved"
  ],
  [
   " ",
   "K"
  ],
  [
   " book",
   "s"
  ],
  [
   " delic",
   "ious"
  ],
  [
   " wonder",
   "ful"
  ],
  [
   " s",
   "ong"
  ],
  [
   " contin",
   "ued"
  ],
  [
   "a",
   "v"
  ],
  [
   "ro",
   "ss"
  ],
  [
   " clo",
   "se"
  ],
  [
   " L",
   "ila"
  ],
  [
   "s",
   "p"
  ],
  [
   " re",
   "l"
  ],
  [
   " a",
   "rm"
  ],
  [
   " mu",
   "s"
  ],
  [
   " underst",
   "and"
  ],
  [
   "ie",
   "ld"
  ],
  [
   " m",
   "ight"
  ],
  [
   "ro",
   "om"
  ],
  [
   "F",
   "rom"
  ],
  [
   " h",
   "ot"
  ],
  [
   " N",
   "ow"
  ],
  [
   " forg",
   "ot"
  ],
  [
   " e",
   "l"
  ],
  [
   " g",
   "one"
  ],
  [
   " din",
   "ner"
  ],
  [
   " color",
   "s"
  ],
  [
   "'",
   "ll"
  ],
  [
   " fill",
   "ed"
  ],
  [
   " gra",
   "ndma"
  ],
  [
   "O",
   "K"
  ],
  [
   " some",
   "one"
  ],
  [
   " m",
   "at"
  ],
  [
   " lea",
   "ves"
  ],
  [
   "The",
   "n"
  ],
  [
   " m",
   "akes"
  ],
  [
   " m",
   "et"
  ],
  [
   "c",
   "ed"
  ],
  [
   " mom",
   "ent"
  ],
  [
   " want",
   "s"
  ],
  [
   " ta",
   "il"
  ],
  [
   " bro",
   "ken"
  ],
  [
   " a",
   "ble"
  ],
  [
   "e",
   "y"
  ],
  [
   " p",
   "at"
  ],
  [
   " v",
   "is"
  ],
  [
   " sc",
   "ary"
  ],
  [
   "r",
   "ow"
  ],
  [
   " E",
   "m"
  ],
  [
   " ball",
   "oon"
  ],
  [
   "ic",
   "y"
  ],
  [
   " po",
   "in"
  ],
  [
   "m",
   "an"
  ],
  [
   "J",
   "ack"
  ],
  [
   " ag",
   "reed"
  ],
  [
   " cre",
   "at"
  ],
  [
   " cou",
   "nt"
  ],
  [
   "Th",
   "is"
  ],
  [
   " y",
   "es"
  ],
  [
   " other",
   "s"
  ],
  [
   " The",
   "re"
  ],
  [
   "i",
   "ch"
  ],
  [
   " wa",
   "ll"
  ],
  [
   " picture",
   "s"
  ],
  [
   "r",
   "ed"
  ],
  [
   " el",
   "se"
  ],
  [
   " B",
   "illy"
  ],
  [
   " m",
   "other"
  ],
  [
   "as",
   "k"
  ],
  [
   "!",
   "”"
  ],
  [
   " w",
   "et"
  ],
  [
   " en",
   "ough"
  ],
  [
   " amaz",
   "ing"
  ],
  [
   " tal",
   "k"
  ],
  [
   " cook",
   "ies"
  ],
  [
   " p",
   "ink"
  ],
  [
   " get",
   "ting"
  ],
  [
   " mor",
   "ning"
  ],
  [
   " cast",
   "le"
  ],
  [
   "r",
   "ot"
  ],
  [
   " bre",
   "ak"
  ],
  [
   " pu",
   "ppy"
  ],
  [
   " f",
   "all"
  ],
  [
   " try",
   "ing"
  ],
  [
   " hun",
   "gry"
  ],
  [
   " m",
   "ar"
  ],
  [
   " squ",
   "ir"
  ],
  [
   "l",
   "f"
  ],
  [
   "on",
   "s"
  ],
  [
   " br",
   "ought"
  ],
  [
   "ct",
   "or"
  ],
  [
   " W",
   "hat"
  ],
  [
   " Th",
   "is"
  ],
  [
   "ou",
   "p"
  ],
  [
   " M",
   "aybe"
  ],
  [
   "ke",
   "y"
  ],
  [
   " wh",
   "ite"
  ],
  [
   " fin",
   "ally"
  ],
  [
   " smil",
   "es"
  ],
  [
   " mus",
   "ic"
  ],
  [
   " cl",
   "ot"
  ],
  [
   "A",
   "t"
  ],
  [
   "H",
   "is"
  ],
  [
   " climb",
   "ed"
  ],
  [
   "ri",
   "es"
  ],
  [
   " turn",
   "ed"
  ],
  [
   " p",
   "i"
  ],
  [
   " squir",
   "rel"
  ],
  [
   " clot",
   "hes"
  ],
  [
   " fe",
   "w"
  ],
  [
   "o",
   "om"
  ],
  [
   " com",
   "p"
  ],
  [
   "z",
   "z"
  ],
  [
   "l",
   "c"
  ],
  [
   " list",
   "ened"
  ],
  [
   " somet",
   "imes"
  ],
  [
   " perf",
   "ect"
  ],
  [
   "\n",
   " "
  ],
  [
   " dad",
   "dy"
  ],
  [
   "or",
   "ing"
  ],
  [
   " J",
   "en"
  ],
  [
   ".",
   "”"
  ],
  [
   " sa",
   "il"
  ],
  [
   " p",
   "et"
  ],
  [
   " ro",
   "ll"
  ],
  [
   "a",
   "pp"
  ],
  [
   "an",
   "ce"
  ],
  [
   " j",
   "u"
  ],
  [
   "am",
   "p"
  ],
  [
   " F",
   "l"
  ],
  [
   "am",
   "a"
  ],
  [
   " G",
   "ra"
  ],
  [
   " wa",
   "ited"
  ],
  [
   "is",
   "ter"
  ],
  [
   "q",
   "ue"
  ],
  [
   " po",
   "l"
  ],
  [
   " stay",
   "ed"
  ],
  [
   " every",
   "thing"
  ],
  [
   "M",
   "aybe"
  ],
  [
   " t",
   "eddy"
  ],
  [
   "O",
   "h"
  ],
  [
   " sp",
   "l"
  ],
  [
   "w",
   "l"
  ],
  [
   "uck",
   "y"
  ],
  [
   " ask",
   "s"
  ],
  [
   " be",
   "ach"
  ],
  [
   " gr",
   "ow"
  ],
  [
   " ba",
   "by"
  ],
  [
   "at",
   "ed"
  ],
  [
   " ",
   "ve"
  ],
  [
   " f",
   "ight"
  ],
  [
   " s",
   "illy"
  ],
  [
   " was",
   "n"
  ],
  [
   " al",
   "one"
  ],
  [
   "ow",
   "er"
  ],
  [
   " de",
   "ep"
  ],
  [
   " r",
   "ide"
  ],
  [
   " h",
   "ide"
  ],
  [
   " dan",
   "ger"
  ],
  [
   " amaz",
   "ed"
  ],
  [
   " str",
   "ange"
  ],
  [
   " vis",
   "it"
  ],
  [
   "d",
   "er"
  ],
  [
   "o",
   "s"
  ],
  [
   " wood",
   "s"
  ],
  [
   " se",
   "ar"
  ],
  [
   " fly",
   "ing"
  ],
  [
   "g",
   "g"
  ],
  [
   " cl",
   "oud"
  ],
  [
   " s",
   "it"
  ],
  [
   " tow",
   "ards"
  ],
  [
   " th",
   "re"
  ],
  [
   " sp",
   "ark"
  ],
  [
   " cre",
   "am"
  ],
  [
   " fo",
   "x"
  ],
  [
   "op",
   "e"
  ],
  [
   "e",
   "ver"
  ],
  [
   "et",
   "er"
  ],
  [
   " l",
   "ake"
  ],
  [
   "ot",
   "t"
  ],
  [
   "en",
   "ce"
  ],
  [
   " p",
   "a"
  ],
  [
   " mor",
   "al"
  ],
  [
   " pull",
   "ed"
  ],
  [
   "t",
   "hy"
  ],
  [
   " br",
   "an"
  ],
  [
   "m",
   "e"
  ],
  [
   " p",
   "en"
  ],
  [
   "am",
   "es"
  ],
  [
   " j",
   "ob"
  ],
  [
   "p",
   "h"
  ],
  [
   "z",
   "e"
  ],
  [
   "i",
   "x"
  ],
  [
   "M",
   "ax"
  ],
  [
   " j",
   "oy"
  ],
  [
   " g",
   "u"
  ],
  [
   " prom",
   "ised"
  ],
  [
   " dra",
   "gon"
  ],
  [
   " s",
   "ister"
  ],
  [
   "ck",
   "et"
  ],
  [
   " part",
   "y"
  ],
  [
   "m",
   "ed"
  ],
  [
   " A",
   "my"
  ],
  [
   "ss",
   "ed"
  ],
  [
   "a",
   "pped"
  ],
  [
   "an",
   "g"
  ],
  [
   " tre",
   "asure"
  ],
  [
   "ug",
   "g"
  ],
  [
   " f",
   "ur"
  ],
  [
   " cu",
   "p"
  ],
  [
   "av",
   "y"
  ],
  [
   "ig",
   "g"
  ],
  [
   " sh",
   "ar"
  ],
  [
   " c",
   "andy"
  ],
  [
   " le",
   "ave"
  ],
  [
   "O",
   "kay"
  ],
  [
   " big",
   "ger"
  ],
  [
   " g",
   "if"
  ],
  [
   " li",
   "ving"
  ],
  [
   "u",
   "p"
  ],
  [
   " sh",
   "ared"
  ],
  [
   " s",
   "ide"
  ],
  [
   " doll",
   "s"
  ],
  [
   " Tom",
   "my"
  ],
  [
   " b",
   "ike"
  ],
  [
   "out",
   "h"
  ],
  [
   "ain",
   "ed"
  ],
  [
   " la",
   "nd"
  ],
  [
   " own",
   "er"
  ],
  [
   " tra",
   "in"
  ],
  [
   "is",
   "es"
  ],
  [
   " dan",
   "ce"
  ],
  [
   " prin",
   "cess"
  ],
  [
   " gr",
   "ate"
  ],
  [
   "un",
   "ch"
  ],
  [
   " wor",
   "ried"
  ],
  [
   " think",
   "s"
  ],
  [
   " m",
   "outh"
  ],
  [
   " grate",
   "ful"
  ],
  [
   " pain",
   "t"
  ],
  [
   " jo",
   "in"
  ],
  [
   " w",
   "on"
  ],
  [
   "ec",
   "es"
  ],
  [
   " bl",
   "ank"
  ],
  [
   " f",
   "ield"
  ],
  [
   " help",
   "ing"
  ],
  [
   " b",
   "ott"
  ],
  [
   " do",
   "ctor"
  ],
  [
   " run",
   "s"
  ],
  [
   " we",
   "lc"
  ],
  [
   " pi",
   "eces"
  ],
  [
   " bl",
   "ack"
  ],
  [
   " M",
   "olly"
  ],
  [
   " tre",
   "at"
  ],
  [
   " s",
   "ign"
  ],
  [
   " slow",
   "ly"
  ],
  [
   " blank",
   "et"
  ],
  [
   " e",
   "m"
  ],
  [
   " cry",
   "ing"
  ],
  [
   " far",
   "mer"
  ],
  [
   "s",
   "et"
  ],
  [
   " A",
   "ll"
  ],
  [
   " bel",
   "ie"
  ],
  [
   "im",
   "my"
  ],
  [
   " m",
   "oney"
  ],
  [
   " at",
   "t"
  ],
  [
   " every",
   "where"
  ],
  [
   " car",
   "rot"
  ],
  [
   "or",
   "m"
  ],
  [
   " danger",
   "ous"
  ],
  [
   "le",
   "ph"
  ],
  [
   "o",
   "l"
  ],
  [
   " re",
   "ach"
  ],
  [
   " bow",
   "l"
  ],
  [
   "i",
   "et"
  ],
  [
   " J",
   "ill"
  ],
  [
   " pl",
   "an"
  ],
  [
   " magic",
   "al"
  ],
  [
   "c",
   "le"
  ],
  [
   " p",
   "ot"
  ],
  [
   "i",
   "re"
  ],
  [
   " p",
   "ie"
  ],
  [
   "u",
   "ally"
  ],
  [
   "s",
   "w"
  ],
  [
   " fast",
   "er"
  ],
  [
   "H",
   "i"
  ],
  [
   " mon",
   "key"
  ],
  [
   " he",
   "avy"
  ],
  [
   " ch",
   "o"
  ],
  [
   "S",
   "ure"
  ],
  [
   "f",
   "ort"
  ],
  [
   " mo",
   "st"
  ],
  [
   " an",
   "sw"
  ],
  [
   "b",
   "ble"
  ],
  [
   " pl",
   "ant"
  ],
  [
   " color",
   "ful"
  ],
  [
   " dir",
   "ty"
  ],
  [
   "W",
   "hy"
  ],
  [
   " Fl",
   "uffy"
  ],
  [
   " qu",
   "iet"
  ],
  [
   " tow",
   "er"
  ],
  [
   "l",
   "ing"
  ],
  [
   "i",
   "pp"
  ],
  [
   " sn",
   "ack"
  ],
  [
   "c",
   "y"
  ],
  [
   "i",
   "pped"
  ],
  [
   "w",
   "eet"
  ],
  [
   " s",
   "uch"
  ],
  [
   "e",
   "e"
  ],
  [
   "le",
   "ss"
  ],
  [
   " ste",
   "pped"
  ],
  [
   " T",
   "o"
  ],
  [
   " sm",
   "art"
  ],
  [
   " m",
   "ix"
  ],
  [
   " ac",
   "c"
  ],
  [
   "e",
   "ar"
  ],
  [
   " tw",
   "ins"
  ],
  [
   "id",
   "ent"
  ],
  [
   "as",
   "ed"
  ],
  [
   " b",
   "ar"
  ],
  [
   "um",
   "b"
  ],
  [
   " se",
   "c"
  ],
  [
   " bro",
   "ke"
  ],
  [
   " wor",
   "ds"
  ],
  [
   "m",
   "ing"
  ],
  [
   "al",
   "thy"
  ],
  [
   " pr",
   "o"
  ],
  [
   " sc",
   "ream"
  ],
  [
   " clo",
   "sed"
  ],
  [
   "ch",
   "ool"
  ],
  [
   " b",
   "ath"
  ],
  [
   " dis",
   "app"
  ],
  [
   " r",
   "ace"
  ],
  [
   " b",
   "uck"
  ],
  [
   " ac",
   "ross"
  ],
  [
   " h",
   "ig"
  ],
  [
   " eat",
   "ing"
  ],
  [
   " sh",
   "ap"
  ],
  [
   " st",
   "uck"
  ],
  [
   " he",
   "art"
  ],
  [
   " thre",
   "w"
  ],
  [
   " n",
   "ap"
  ],
  [
   " hop",
   "ed"
  ],
  [
   " s",
   "chool"
  ],
  [
   " cr",
   "ay"
  ],
  [
   " w",
   "in"
  ],
  [
   "ck",
   "ed"
  ],
  [
   " sa",
   "me"
  ],
  [
   " c",
   "our"
  ],
  [
   " to",
   "wn"
  ],
  [
   " l",
   "on"
  ],
  [
   " y",
   "ard"
  ],
  [
   " mu",
   "st"
  ],
  [
   "or",
   "ed"
  ],
  [
   " te",
   "ac"
  ],
  [
   " sp",
   "r"
  ],
  [
   " r",
   "iver"
  ],
  [
   "d",
   "e"
  ],
  [
   " but",
   "t"
  ],
  [
   "or",
   "row"
  ],
  [
   " lon",
   "ely"
  ],
  [
   "it",
   "ing"
  ],
  [
   " ne",
   "igh"
  ],
  [
   "e",
   "ared"
  ],
  [
   " cour",
   "se"
  ],
  [
   " fr",
   "uit"
  ],
  [
   " with",
   "out"
  ],
  [
   " j",
   "e"
  ],
  [
   " neigh",
   "b"
  ],
  [
   " br",
   "own"
  ],
  [
   " sec",
   "ret"
  ],
  [
   " feel",
   "s"
  ],
  [
   "ra",
   "ct"
  ],
  [
   " gent",
   "le"
  ],
  [
   " to",
   "day"
  ],
  [
   " b",
   "ite"
  ],
  [
   "M",
   "ia"
  ],
  [
   " st",
   "and"
  ],
  [
   " sho",
   "es"
  ],
  [
   "n",
   "ey"
  ],
  [
   " belie",
   "ve"
  ],
  [
   "’",
   "t"
  ],
  [
   " mon",
   "ster"
  ],
  [
   " gif",
   "t"
  ],
  [
   " hig",
   "her"
  ],
  [
   " cl",
   "apped"
  ],
  [
   "b",
   "r"
  ],
  [
   " pus",
   "hed"
  ],
  [
   " g",
   "ames"
  ],
  [
   " welc",
   "ome"
  ],
  [
   "e",
   "re"
  ],
  [
   " h",
   "it"
  ],
  [
   " M",
   "r"
  ],
  [
   " sw",
   "ings"
  ],
  [
   " thr",
   "ow"
  ],
  [
   " po",
   "cket"
  ],
  [
   " acc",
   "ident"
  ],
  [
   " up",
   "set"
  ],
  [
   " che",
   "ered"
  ],
  [
   " teac",
   "her"
  ],
  [
   "b",
   "ow"
  ],
  [
   " be",
   "e"
  ],
  [
   " le",
   "g"
  ],
  [
   " co",
   "ll"
  ],
  [
   "leph",
   "ant"
  ],
  [
   "e",
   "k"
  ],
  [
   " p",
   "ack"
  ],
  [
   " se",
   "a"
  ],
  [
   " no",
   "ises"
  ],
  [
   " br",
   "ing"
  ],
  [
   "i",
   "er"
  ],
  [
   " expl",
   "ained"
  ],
  [
   " would",
   "n"
  ],
  [
   " w",
   "ings"
  ],
  [
   "ask",
   "et"
  ],
  [
   " sh",
   "op"
  ],
  [
   " j",
   "our"
  ],
  [
   " dro",
   "ve"
  ],
  [
   " sm",
   "o"
  ],
  [
   " fair",
   "y"
  ],
  [
   " c",
   "a"
  ],
  [
   " or",
   "ange"
  ],
  [
   "L",
   "ila"
  ],
  [
   "e",
   "ad"
  ],
  [
   "i",
   "ble"
  ],
  [
   " rock",
   "s"
  ],
  [
   " sa",
   "ng"
  ],
  [
   " dro",
   "pped"
  ],
  [
   " long",
   "er"
  ],
  [
   "F",
   "inally"
  ],
  [
   " o",
   "wl"
  ],
  [
   " l",
   "unch"
  ],
  [
   " e",
   "lephant"
  ],
  [
   " ne",
   "ck"
  ],
  [
   " Em",
   "ma"
  ],
  [
   "vent",
   "ually"
  ],
  [
   " b",
   "en"
  ],
  [
   " b",
   "and"
  ],
  [
   " w",
   "he"
  ],
  [
   "is",
   "sed"
  ],
  [
   " adventure",
   "s"
  ],
  [
   " rain",
   "bow"
  ],
  [
   " we",
   "ll"
  ],
  [
   "m",
   "ent"
  ],
  [
   " f",
   "ree"
  ],
  [
   " happ",
   "en"
  ],
  [
   " p",
   "ers"
  ],
  [
   " app",
   "le"
  ],
  [
   " b",
   "asket"
  ],
  [
   " c",
   "aught"
  ],
  [
   "st",
   "ead"
  ],
  [
   " s",
   "oup"
  ],
  [
   " hug",
   "s"
  ],
  [
   "ou",
   "n"
  ],
  [
   "or",
   "s"
  ],
  [
   "bb",
   "y"
  ],
  [
   "ve",
   "l"
  ],
  [
   " d",
   "ry"
  ],
  [
   " sw",
   "am"
  ],
  [
   " p",
   "ig"
  ],
  [
   "y",
   "ard"
  ],
  [
   " T",
   "weet"
  ],
  [
   " s",
   "u"
  ],
  [
   "ou",
   "nt"
  ],
  [
   " ch",
   "air"
  ],
  [
   " Dad",
   "dy"
  ],
  [
   " mo",
   "ved"
  ],
  [
   " pl",
   "ac"
  ],
  [
   " back",
   "yard"
  ],
  [
   " st",
   "re"
  ],
  [
   " al",
   "ong"
  ],
  [
   " sp",
   "oon"
  ],
  [
   " bran",
   "ch"
  ],
  [
   " n",
   "aught"
  ],
  [
   "itt",
   "ens"
  ],
  [
   "c",
   "hes"
  ],
  [
   " expl",
   "oring"
  ],
  [
   " see",
   "med"
  ],
  [
   " for",
   "get"
  ],
  [
   " to",
   "m"
  ],
  [
   " turn",
   "s"
  ],
  [
   " sing",
   "ing"
  ],
  [
   "itt",
   "ing"
  ],
  [
   "fu",
   "sed"
  ],
  [
   " buck",
   "et"
  ],
  [
   " naught",
   "y"
  ],
  [
   " m",
   "in"
  ],
  [
   "or",
   "d"
  ],
  [
   "us",
   "h"
  ],
  [
   " re",
   "sp"
  ],
  [
   "id",
   "ge"
  ],
  [
   " m",
   "ine"
  ],
  [
   "D",
   "o"
  ],
  [
   " st",
   "ar"
  ],
  [
   " Th",
   "ank"
  ],
  [
   " d",
   "es"
  ],
  [
   " no",
   "se"
  ],
  [
   " w",
   "ise"
  ],
  [
   "h",
   "o"
  ],
  [
   "?",
   "”"
  ],
  [
   "le",
   "t"
  ],
  [
   "ck",
   "s"
  ],
  [
   "un",
   "g"
  ],
  [
   " s",
   "uddenly"
  ],
  [
   " wo",
   "ke"
  ],
  [
   "itt",
   "y"
  ],
  [
   " bel",
   "ong"
  ],
  [
   " l",
   "ate"
  ],
  [
   " m",
   "iss"
  ],
  [
   " f",
   "ence"
  ],
  [
   " w",
   "ish"
  ],
  [
   " Gra",
   "ndma"
  ],
  [
   " p",
   "ast"
  ],
  [
   "s",
   "y"
  ],
  [
   " tr",
   "ou"
  ],
  [
   "c",
   "er"
  ],
  [
   "c",
   "es"
  ],
  [
   " c",
   "ave"
  ],
  [
   " d",
   "ist"
  ],
  [
   " k",
   "ite"
  ],
  [
   "ock",
   "ed"
  ],
  [
   " you",
   "ng"
  ],
  [
   " s",
   "ick"
  ],
  [
   " sh",
   "ook"
  ],
  [
   " near",
   "by"
  ],
  [
   " o",
   "b"
  ],
  [
   "es",
   "e"
  ],
  [
   " ju",
   "ice"
  ],
  [
   " wa",
   "r"
  ],
  [
   " ex",
   "p"
  ],
  [
   " ke",
   "y"
  ],
  [
   "c",
   "ing"
  ],
  [
   " ",
   "es"
  ],
  [
   "h",
   "one"
  ],
  [
   " ta",
   "king"
  ],
  [
   " pre",
   "s"
  ],
  [
   " st",
   "ars"
  ],
  [
   "co",
   "l"
  ],
  [
   " th",
   "ough"
  ],
  [
   " C",
   "ome"
  ],
  [
   " t",
   "iny"
  ],
  [
   " sound",
   "s"
  ],
  [
   " b",
   "at"
  ],
  [
   " bus",
   "y"
  ],
  [
   " a",
   "f"
  ],
  [
   " st",
   "u"
  ],
  [
   "L",
   "ater"
  ],
  [
   "ll",
   "o"
  ],
  [
   " ta",
   "kes"
  ],
  [
   " M",
   "ary"
  ],
  [
   " laug",
   "hing"
  ],
  [
   " arm",
   "s"
  ],
  [
   " ben",
   "ch"
  ],
  [
   "ount",
   "ain"
  ],
  [
   " car",
   "ry"
  ],
  [
   " dri",
   "ver"
  ],
  [
   " dr",
   "ink"
  ],
  [
   " pie",
   "ce"
  ],
  [
   " rel",
   "ie"
  ],
  [
   "t",
   "s"
  ],
  [
   "O",
   "f"
  ],
  [
   " m",
   "ark"
  ],
  [
   "ver",
   "ed"
  ],
  [
   " wonder",
   "ed"
  ],
  [
   " in",
   "v"
  ],
  [
   "p",
   "ed"
  ],
  [
   " ma",
   "il"
  ],
  [
   "aught",
   "er"
  ],
  [
   " wh",
   "ist"
  ],
  [
   " p",
   "urp"
  ],
  [
   " ",
   "3"
  ],
  [
   " n",
   "est"
  ],
  [
   " com",
   "es"
  ],
  [
   " m",
   "il"
  ],
  [
   "ra",
   "id"
  ],
  [
   " c",
   "ard"
  ],
  [
   " j",
   "ar"
  ],
  [
   " pres",
   "ent"
  ],
  [
   "ion",
   "s"
  ],
  [
   " col",
   "our"
  ],
  [
   " stor",
   "ies"
  ],
  [
   " ye",
   "ar"
  ],
  [
   " pat",
   "ient"
  ],
  [
   " af",
   "raid"
  ],
  [
   " sun",
   "ny"
  ],
  [
   "B",
   "ob"
  ],
  [
   " cut",
   "e"
  ],
  [
   " m",
   "ad"
  ],
  [
   "o",
   "se"
  ],
  [
   "b",
   "all"
  ],
  [
   " m",
   "ist"
  ],
  [
   " p",
   "ower"
  ],
  [
   " w",
   "ra"
  ],
  [
   "w",
   "ard"
  ],
  [
   " b",
   "oun"
  ],
  [
   "pp",
   "ing"
  ],
  [
   " g",
   "igg"
  ],
  [
   " s",
   "itting"
  ],
  [
   "itt",
   "en"
  ],
  [
   " In",
   "side"
  ],
  [
   " dan",
   "ced"
  ],
  [
   " purp",
   "le"
  ],
  [
   "in",
   "ing"
  ],
  [
   " r",
   "ound"
  ],
  [
   " e",
   "as"
  ],
  [
   " li",
   "ft"
  ],
  [
   " snow",
   "man"
  ],
  [
   "g",
   "ged"
  ],
  [
   " d",
   "aughter"
  ],
  [
   " f",
   "an"
  ],
  [
   " watch",
   "ing"
  ],
  [
   "u",
   "nt"
  ],
  [
   "st",
   "ing"
  ],
  [
   " k",
   "ing"
  ],
  [
   " co",
   "zy"
  ],
  [
   " far",
   "m"
  ],
  [
   "sh",
   "ine"
  ],
  [
   " exc",
   "iting"
  ],
  [
   " che",
   "ese"
  ],
  [
   "a",
   "il"
  ],
  [
   " not",
   "hing"
  ],
  [
   " he",
   "llo"
  ],
  [
   " to",
   "u"
  ],
  [
   " sun",
   "shine"
  ],
  [
   " tou",
   "ched"
  ],
  [
   "th",
   "day"
  ],
  [
   " day",
   "s"
  ],
  [
   " pu",
   "zz"
  ],
  [
   " accident",
   "ally"
  ],
  [
   "p",
   "e"
  ],
  [
   " p",
   "udd"
  ],
  [
   " mil",
   "k"
  ],
  [
   " f",
   "it"
  ],
  [
   " c",
   "ir"
  ],
  [
   "iz",
   "e"
  ],
  [
   " li",
   "fe"
  ],
  [
   "A",
   "nd"
  ],
  [
   " shap",
   "es"
  ],
  [
   " l",
   "etter"
  ],
  [
   " gra",
   "nd"
  ],
  [
   " hold",
   "ing"
  ],
  [
   " int",
   "ere"
  ],
  [
   " b",
   "ought"
  ],
  [
   " F",
   "inally"
  ],
  [
   " bott",
   "le"
  ],
  [
   " in",
   "stead"
  ],
  [
   " v",
   "ill"
  ],
  [
   " relie",
   "ved"
  ],
  [
   "a",
   "ur"
  ],
  [
   " swim",
   "ming"
  ],
  [
   " jour",
   "ney"
  ],
  [
   " dis",
   "co"
  ],
  [
   "He",
   "y"
  ],
  [
   "bo",
   "ard"
  ],
  [
   " creat",
   "ure"
  ],
  [
   "o",
   "g"
  ],
  [
   "et",
   "h"
  ],
  [
   " com",
   "fort"
  ],
  [
   " gi",
   "ves"
  ],
  [
   " M",
   "ama"
  ],
  [
   "p",
   "a"
  ],
  [
   " c",
   "e"
  ],
  [
   " im",
   "ag"
  ],
  [
   " shar",
   "p"
  ],
  [
   "L",
   "ucy"
  ],
  [
   " J",
   "immy"
  ],
  [
   " bir",
   "thday"
  ],
  [
   "t",
   "o"
  ],
  [
   "G",
   "ood"
  ],
  [
   "n",
   "ess"
  ],
  [
   " pe",
   "ace"
  ],
  [
   " p",
   "ath"
  ],
  [
   " stre",
   "et"
  ],
  [
   " e",
   "gg"
  ],
  [
   " f",
   "ing"
  ],
  [
   " hop",
   "e"
  ],
  [
   "al",
   "m"
  ],
  [
   "ep",
   "end"
  ],
  [
   " l",
   "ucky"
  ],
  [
   "it",
   "y"
  ],
  [
   " e",
   "ar"
  ],
  [
   "oo",
   "se"
  ],
  [
   " ro",
   "ad"
  ],
  [
   " fore",
   "ver"
  ],
  [
   "it",
   "ch"
  ],
  [
   " sp",
   "o"
  ],
  [
   " bus",
   "h"
  ],
  [
   " re",
   "s"
  ],
  [
   "ad",
   "ow"
  ],
  [
   " hug",
   "e"
  ],
  [
   " smell",
   "ed"
  ],
  [
   " smil",
   "ing"
  ],
  [
   " he",
   "althy"
  ],
  [
   " cray",
   "ons"
  ],
  [
   " in",
   "c"
  ],
  [
   " tast",
   "y"
  ],
  [
   "o",
   "ve"
  ],
  [
   " Sam",
   "my"
  ],
  [
   " any",
   "one"
  ],
  [
   " So",
   "on"
  ],
  [
   " a",
   "ct"
  ],
  [
   "ir",
   "t"
  ],
  [
   " gra",
   "b"
  ],
  [
   " tal",
   "ked"
  ],
  [
   " re",
   "t"
  ],
  [
   " M",
   "ittens"
  ],
  [
   " ro",
   "b"
  ],
  [
   " p",
   "ar"
  ],
  [
   " prom",
   "ise"
  ],
  [
   " or",
   "gan"
  ],
  [
   " p",
   "ill"
  ],
  [
   " poin",
   "ted"
  ],
  [
   " p",
   "ract"
  ],
  [
   " ",
   "O"
  ],
  [
   " c",
   "or"
  ],
  [
   " t",
   "un"
  ],
  [
   " wr",
   "ite"
  ],
  [
   " sear",
   "ched"
  ],
  [
   " S",
   "omet"
  ],
  [
   " stor",
   "m"
  ],
  [
   " sand",
   "w"
  ],
  [
   " fe",
   "ather"
  ],
  [
   " k",
   "ick"
  ],
  [
   " kne",
   "e"
  ],
  [
   "f",
   "ish"
  ],
  [
   " ret",
   "urn"
  ],
  [
   " rob",
   "ot"
  ],
  [
   " resp",
   "ect"
  ],
  [
   "el",
   "s"
  ],
  [
   "C",
   "ome"
  ],
  [
   "ble",
   "m"
  ],
  [
   " pl",
   "ane"
  ],
  [
   " z",
   "oom"
  ],
  [
   " pro",
   "blem"
  ],
  [
   " s",
   "ur"
  ],
  [
   " k",
   "iss"
  ],
  [
   " l",
   "ater"
  ],
  [
   " a",
   "p"
  ],
  [
   " ad",
   "m"
  ],
  [
   " roll",
   "ed"
  ],
  [
   " intere",
   "sting"
  ],
  [
   " h",
   "or"
  ],
  [
   "on",
   "t"
  ],
  [
   " wa",
   "ve"
  ],
  [
   " h",
   "oney"
  ],
  [
   "l",
   "a"
  ],
  [
   "t",
   "en"
  ],
  [
   " e",
   "ag"
  ],
  [
   " w",
   "ild"
  ],
  [
   " lo",
   "ves"
  ],
  [
   " r",
   "ope"
  ],
  [
   " butt",
   "on"
  ],
  [
   " on",
   "to"
  ],
  [
   "am",
   "ed"
  ],
  [
   " fo",
   "ot"
  ],
  [
   "a",
   "le"
  ],
  [
   " pers",
   "on"
  ],
  [
   " c",
   "ow"
  ],
  [
   " put",
   "s"
  ],
  [
   " cou",
   "ch"
  ],
  [
   " cloud",
   "s"
  ],
  [
   "ce",
   "an"
  ],
  [
   " who",
   "le"
  ],
  [
   " s",
   "uc"
  ],
  [
   " z",
   "oo"
  ],
  [
   " my",
   "ster"
  ],
  [
   " fr",
   "ont"
  ],
  [
   " o",
   "cean"
  ],
  [
   " w",
   "ide"
  ],
  [
   " te",
   "ach"
  ],
  [
   " p",
   "ass"
  ],
  [
   " gent",
   "ly"
  ],
  [
   " co",
   "at"
  ],
  [
   " g",
   "ather"
  ],
  [
   " tast",
   "ed"
  ],
  [
   " as",
   "leep"
  ],
  [
   " me",
   "et"
  ],
  [
   " sa",
   "f"
  ],
  [
   " co",
   "in"
  ],
  [
   " coll",
   "ect"
  ],
  [
   " d",
   "i"
  ],
  [
   " ",
   "ent"
  ],
  [
   " help",
   "ful"
  ],
  [
   " rock",
   "et"
  ],
  [
   " plac",
   "es"
  ],
  [
   " sa",
   "ck"
  ],
  [
   " love",
   "ly"
  ],
  [
   " tal",
   "king"
  ],
  [
   " build",
   "ing"
  ],
  [
   " bre",
   "ad"
  ],
  [
   " R",
   "e"
  ],
  [
   "I",
   "n"
  ],
  [
   " p",
   "ile"
  ],
  [
   " Jen",
   "ny"
  ],
  [
   "ch",
   "ing"
  ],
  [
   "if",
   "e"
  ],
  [
   " pus",
   "h"
  ],
  [
   " trou",
   "ble"
  ],
  [
   " che",
   "er"
  ],
  [
   " em",
   "b"
  ],
  [
   " pr",
   "ot"
  ],
  [
   " as",
   "h"
  ],
  [
   " imp",
   "re"
  ],
  [
   "u",
   "b"
  ],
  [
   " sh",
   "r"
  ],
  [
   " go",
   "es"
  ],
  [
   " wait",
   "ing"
  ],
  [
   " app",
   "les"
  ],
  [
   " o",
   "ven"
  ],
  [
   " scream",
   "ed"
  ],
  [
   "er",
   "t"
  ],
  [
   " b",
   "al"
  ],
  [
   "Tom",
   "my"
  ],
  [
   " sp",
   "icy"
  ],
  [
   " b",
   "ark"
  ],
  [
   " ch",
   "ick"
  ],
  [
   " wear",
   "ing"
  ],
  [
   " th",
   "in"
  ],
  [
   " m",
   "ach"
  ],
  [
   "iz",
   "z"
  ],
  [
   " duck",
   "s"
  ],
  [
   " wh",
   "ich"
  ],
  [
   " sh",
   "ining"
  ],
  [
   " prot",
   "ect"
  ],
  [
   " qu",
   "est"
  ],
  [
   " con",
   "fused"
  ],
  [
   " sp",
   "ent"
  ],
  [
   " p",
   "our"
  ],
  [
   "h",
   "ile"
  ],
  [
   "n",
   "n"
  ],
  [
   "ar",
   "ra"
  ],
  [
   " neighb",
   "or"
  ],
  [
   " pretend",
   "ed"
  ],
  [
   " emb",
   "arra"
  ],
  [
   " h",
   "on"
  ],
  [
   "J",
   "ust"
  ],
  [
   "M",
   "olly"
  ],
  [
   " gi",
   "ant"
  ],
  [
   "ur",
   "se"
  ],
  [
   " fin",
   "ish"
  ],
  [
   " G",
   "o"
  ],
  [
   " su",
   "pp"
  ],
  [
   " s",
   "er"
  ],
  [
   " sl",
   "id"
  ],
  [
   " spot",
   "ted"
  ],
  [
   " spl",
   "as"
  ],
  [
   " st",
   "ir"
  ],
  [
   " del",
   "ight"
  ],
  [
   " forg",
   "ive"
  ],
  [
   " tri",
   "p"
  ],
  [
   " fa",
   "ces"
  ],
  [
   " vill",
   "age"
  ],
  [
   " l",
   "ad"
  ],
  [
   " p",
   "op"
  ],
  [
   " sc",
   "ar"
  ],
  [
   " wor",
   "m"
  ],
  [
   " hor",
   "se"
  ],
  [
   " w",
   "om"
  ],
  [
   "le",
   "x"
  ],
  [
   "ow",
   "ed"
  ],
  [
   " sp",
   "id"
  ],
  [
   " fur",
   "ry"
  ],
  [
   "ir",
   "d"
  ],
  [
   " fe",
   "et"
  ],
  [
   "um",
   "ber"
  ],
  [
   " K",
   "itty"
  ],
  [
   " cho",
   "col"
  ],
  [
   " mu",
   "d"
  ],
  [
   "bble",
   "s"
  ],
  [
   " wom",
   "an"
  ],
  [
   "is",
   "a"
  ],
  [
   " st",
   "ep"
  ],
  [
   " p",
   "ool"
  ],
  [
   " mat",
   "ter"
  ],
  [
   " cor",
   "ner"
  ],
  [
   " n",
   "ut"
  ],
  [
   " sn",
   "ake"
  ],
  [
   " min",
   "ut"
  ],
  [
   "S",
   "t"
  ],
  [
   " cook",
   "ie"
  ],
  [
   " song",
   "s"
  ],
  [
   " tom",
   "orrow"
  ],
  [
   " pudd",
   "le"
  ],
  [
   "as",
   "er"
  ],
  [
   "ar",
   "ge"
  ],
  [
   "ul",
   "ar"
  ],
  [
   " A",
   "l"
  ],
  [
   " cle",
   "ver"
  ],
  [
   "E",
   "very"
  ],
  [
   " app",
   "eared"
  ],
  [
   " Somet",
   "imes"
  ],
  [
   " se",
   "at"
  ],
  [
   " c",
   "art"
  ],
  [
   " tr",
   "ust"
  ],
  [
   " b",
   "lew"
  ],
  [
   " dir",
   "t"
  ],
  [
   " when",
   "ever"
  ],
  [
   " p",
   "hone"
  ],
  [
   " tast",
   "e"
  ],
  [
   " g",
   "un"
  ],
  [
   " sh",
   "y"
  ],
  [
   "get",
   "able"
  ],
  [
   " lad",
   "der"
  ],
  [
   " l",
   "ay"
  ],
  [
   " dri",
   "ve"
  ],
  [
   " e",
   "ventually"
  ],
  [
   " chocol",
   "ate"
  ],
  [
   " ve",
   "getable"
  ],
  [
   " c",
   "oo"
  ],
  [
   " k",
   "itten"
  ],
  [
   " was",
   "h"
  ],
  [
   " S",
   "ome"
  ],
  [
   " fl",
   "ut"
  ],
  [
   " cl",
   "oth"
  ],
  [
   " C",
   "h"
  ],
  [
   " n",
   "et"
  ],
  [
   " ",
   "ign"
  ],
  [
   " fix",
   "ed"
  ],
  [
   " te",
   "eth"
  ],
  [
   " sa",
   "l"
  ],
  [
   " H",
   "ow"
  ],
  [
   " W",
   "ith"
  ],
  [
   " sp",
   "in"
  ],
  [
   " le",
   "m"
  ],
  [
   " la",
   "st"
  ],
  [
   " t",
   "est"
  ],
  [
   "N",
   "ow"
  ],
  [
   " re",
   "c"
  ],
  [
   "le",
   "br"
  ],
  [
   " ce",
   "lebr"
  ],
  [
   "ll",
   "a"
  ],
  [
   " embarra",
   "ssed"
  ],
  [
   " m",
   "ind"
  ],
  [
   "M",
   "um"
  ],
  [
   " rem",
   "ind"
  ],
  [
   " sh",
   "irt"
  ],
  [
   " te",
   "a"
  ],
  [
   " w",
   "ip"
  ],
  [
   " hid",
   "ing"
  ],
  [
   " answ",
   "er"
  ],
  [
   " puzz",
   "le"
  ],
  [
   " c",
   "alm"
  ],
  [
   " l",
   "arge"
  ],
  [
   "at",
   "o"
  ],
  [
   "al",
   "s"
  ],
  [
   " neck",
   "l"
  ],
  [
   " m",
   "ot"
  ],
  [
   "n",
   "ot"
  ],
  [
   " smo",
   "oth"
  ],
  [
   "M",
   "y"
  ],
  [
   " can",
   "not"
  ],
  [
   " a",
   "nt"
  ],
  [
   " so",
   "l"
  ],
  [
   "g",
   "ly"
  ],
  [
   "S",
   "oon"
  ],
  [
   "m",
   "o"
  ],
  [
   " ",
   "'"
  ],
  [
   "o",
   "ld"
  ],
  [
   " tri",
   "es"
  ],
  [
   " spr",
   "ay"
  ],
  [
   " ru",
   "de"
  ],
  [
   " b",
   "an"
  ],
  [
   " she",
   "ll"
  ],
  [
   " too",
   "l"
  ],
  [
   " see",
   "k"
  ],
  [
   " u",
   "gly"
  ],
  [
   " st",
   "ood"
  ],
  [
   " bug",
   "s"
  ],
  [
   " li",
   "ve"
  ],
  [
   "er",
   "ly"
  ],
  [
   " tight",
   "ly"
  ],
  [
   " p",
   "an"
  ],
  [
   " r",
   "ing"
  ],
  [
   " sc",
   "re"
  ],
  [
   " st",
   "ret"
  ],
  [
   " p",
   "in"
  ],
  [
   " sp",
   "e"
  ],
  [
   "n",
   "ic"
  ],
  [
   " J",
   "ust"
  ],
  [
   " carrot",
   "s"
  ],
  [
   "ig",
   "hed"
  ],
  [
   "g",
   "round"
  ],
  [
   " stick",
   "s"
  ],
  [
   " pic",
   "nic"
  ],
  [
   " T",
   "V"
  ],
  [
   " The",
   "ir"
  ],
  [
   " pa",
   "w"
  ],
  [
   "n",
   "ed"
  ],
  [
   "v",
   "ous"
  ],
  [
   " gre",
   "w"
  ],
  [
   " he",
   "ars"
  ],
  [
   " be",
   "ll"
  ],
  [
   " v",
   "al"
  ],
  [
   " m",
   "aybe"
  ],
  [
   " bar",
   "ked"
  ],
  [
   " neckl",
   "ace"
  ],
  [
   "air",
   "s"
  ],
  [
   " fo",
   "ld"
  ],
  [
   " she",
   "lf"
  ],
  [
   " whist",
   "le"
  ],
  [
   " fan",
   "cy"
  ],
  [
   "e",
   "b"
  ],
  [
   "ar",
   "m"
  ],
  [
   "d",
   "en"
  ],
  [
   "on",
   "es"
  ],
  [
   " Em",
   "ily"
  ],
  [
   "o",
   "bby"
  ],
  [
   "ung",
   "le"
  ],
  [
   " sa",
   "ve"
  ],
  [
   " g",
   "as"
  ],
  [
   " P",
   "lease"
  ],
  [
   "bo",
   "x"
  ],
  [
   "ul",
   "t"
  ],
  [
   " for",
   "ward"
  ],
  [
   " spid",
   "er"
  ],
  [
   " mo",
   "on"
  ],
  [
   " jump",
   "ing"
  ],
  [
   " spl",
   "ash"
  ],
  [
   " j",
   "ungle"
  ],
  [
   "re",
   "ad"
  ],
  [
   " w",
   "ore"
  ],
  [
   " car",
   "ried"
  ],
  [
   " fight",
   "ing"
  ],
  [
   " kn",
   "ocked"
  ],
  [
   " m",
   "ed"
  ],
  [
   " bl",
   "ow"
  ],
  [
   "our",
   "s"
  ],
  [
   "h",
   "in"
  ],
  [
   "y",
   "ing"
  ],
  [
   " me",
   "ant"
  ],
  [
   " spark",
   "ly"
  ],
  [
   " m",
   "ountain"
  ],
  [
   " n",
   "er"
  ],
  [
   " ro",
   "ar"
  ],
  [
   " fl",
   "ag"
  ],
  [
   " sleep",
   "y"
  ],
  [
   " c",
   "ross"
  ],
  [
   " mach",
   "ine"
  ],
  [
   " p",
   "le"
  ],
  [
   " str",
   "ing"
  ],
  [
   " treat",
   "s"
  ],
  [
   " sp",
   "read"
  ],
  [
   " st",
   "one"
  ],
  [
   " creat",
   "ive"
  ],
  [
   " ner",
   "vous"
  ],
  [
   " gr",
   "oup"
  ],
  [
   " myster",
   "ious"
  ],
  [
   "d",
   "le"
  ],
  [
   " em",
   "p"
  ],
  [
   " mot",
   "or"
  ],
  [
   " g",
   "en"
  ],
  [
   "on",
   "y"
  ],
  [
   " s",
   "el"
  ],
  [
   " hid",
   "den"
  ],
  [
   " he",
   "l"
  ],
  [
   " p",
   "ri"
  ],
  [
   " B",
   "e"
  ],
  [
   "d",
   "ge"
  ],
  [
   " W",
   "hy"
  ],
  [
   " emp",
   "ty"
  ],
  [
   "y",
   "m"
  ],
  [
   " S",
   "t"
  ],
  [
   "i",
   "an"
  ],
  [
   "ump",
   "y"
  ],
  [
   " dre",
   "w"
  ],
  [
   " b",
   "urn"
  ],
  [
   " tell",
   "s"
  ],
  [
   " land",
   "ed"
  ],
  [
   "o",
   "in"
  ],
  [
   " wh",
   "is"
  ],
  [
   " sh",
   "ip"
  ],
  [
   " pill",
   "ow"
  ],
  [
   " p",
   "izz"
  ],
  [
   "it",
   "al"
  ],
  [
   " s",
   "our"
  ],
  [
   "c",
   "ap"
  ],
  [
   " yell",
   "ed"
  ],
  [
   " pol",
   "ite"
  ],
  [
   "un",
   "k"
  ],
  [
   "a",
   "king"
  ],
  [
   " t",
   "id"
  ],
  [
   " c",
   "age"
  ],
  [
   " shar",
   "ing"
  ],
  [
   "pp",
   "er"
  ],
  [
   " ",
   "On"
  ],
  [
   " st",
   "ra"
  ],
  [
   " ch",
   "ased"
  ],
  [
   " m",
   "issed"
  ],
  [
   " ban",
   "an"
  ],
  [
   " g",
   "ar"
  ],
  [
   " kn",
   "ight"
  ],
  [
   " bre",
   "ath"
  ],
  [
   " snack",
   "s"
  ],
  [
   "iz",
   "zy"
  ],
  [
   " ho",
   "sp"
  ],
  [
   " disapp",
   "oin"
  ],
  [
   " cle",
   "ar"
  ],
  [
   " che",
   "st"
  ],
  [
   "er",
   "ry"
  ],
  [
   " dr",
   "um"
  ],
  [
   " To",
   "gether"
  ],
  [
   " scar",
   "f"
  ],
  [
   " hosp",
   "ital"
  ],
  [
   " the",
   "se"
  ],
  [
   " power",
   "ful"
  ],
  [
   "us",
   "ie"
  ],
  [
   " cra",
   "b"
  ],
  [
   " ash",
   "amed"
  ],
  [
   " sel",
   "fish"
  ],
  [
   "an",
   "o"
  ],
  [
   " re",
   "g"
  ],
  [
   " h",
   "um"
  ],
  [
   " dec",
   "or"
  ],
  [
   "ust",
   "r"
  ],
  [
   " gr",
   "ay"
  ],
  [
   " lem",
   "on"
  ],
  [
   " v",
   "ase"
  ],
  [
   " no",
   "ds"
  ],
  [
   " peace",
   "ful"
  ],
  [
   " se",
   "ed"
  ],
  [
   " John",
   "ny"
  ],
  [
   " c",
   "ries"
  ],
  [
   " stand",
   "ing"
  ],
  [
   " vegetable",
   "s"
  ],
  [
   " p",
   "ir"
  ],
  [
   " plant",
   "s"
  ],
  [
   " whis",
   "p"
  ],
  [
   "f",
   "l"
  ],
  [
   "er",
   "a"
  ],
  [
   "er",
   "y"
  ],
  [
   "ell",
   "a"
  ],
  [
   " ",
   "que"
  ],
  [
   "The",
   "re"
  ],
  [
   " c",
   "ap"
  ],
  [
   " gigg",
   "led"
  ],
  [
   " eas",
   "y"
  ],
  [
   " che",
   "w"
  ],
  [
   " je",
   "w"
  ],
  [
   " go",
   "ld"
  ],
  [
   "eter",
   "m"
  ],
  [
   " cir",
   "c"
  ],
  [
   " me",
   "adow"
  ],
  [
   " fr",
   "ustr"
  ],
  [
   " bec",
   "ome"
  ],
  [
   " fe",
   "ed"
  ],
  [
   "J",
   "ane"
  ],
  [
   "P",
   "lease"
  ],
  [
   " d",
   "eterm"
  ],
  [
   " sc",
   "r"
  ],
  [
   " lea",
   "f"
  ],
  [
   "St",
   "op"
  ],
  [
   " gen",
   "er"
  ],
  [
   " disappoin",
   "ted"
  ],
  [
   " know",
   "ing"
  ],
  [
   " s",
   "que"
  ],
  [
   " pizz",
   "a"
  ],
  [
   "B",
   "e"
  ],
  [
   " a",
   "v"
  ],
  [
   " bo",
   "ard"
  ],
  [
   " l",
   "ine"
  ],
  [
   "os",
   "aur"
  ],
  [
   " ",
   "Z"
  ],
  [
   "itt",
   "er"
  ],
  [
   " Every",
   "where"
  ],
  [
   " bath",
   "room"
  ],
  [
   "mo",
   "st"
  ],
  [
   "at",
   "or"
  ],
  [
   " c",
   "ri"
  ],
  [
   " ex",
   "am"
  ],
  [
   " J",
   "ake"
  ],
  [
   " L",
   "e"
  ],
  [
   " pol",
   "ice"
  ],
  [
   " P",
   "eter"
  ],
  [
   " gar",
   "age"
  ],
  [
   "or",
   "ry"
  ],
  [
   " M",
   "um"
  ],
  [
   " c",
   "and"
  ],
  [
   "M",
   "ama"
  ],
  [
   " br",
   "idge"
  ],
  [
   " dan",
   "cing"
  ],
  [
   "t",
   "i"
  ],
  [
   "er",
   "p"
  ],
  [
   " h",
   "ur"
  ],
  [
   " D",
   "on"
  ],
  [
   "W",
   "here"
  ],
  [
   " b",
   "ored"
  ],
  [
   " que",
   "en"
  ],
  [
   " frustr",
   "ated"
  ],
  [
   " fe",
   "ar"
  ],
  [
   " pr",
   "ay"
  ],
  [
   "ce",
   "pt"
  ],
  [
   " sweet",
   "ie"
  ],
  [
   " spo",
   "il"
  ],
  [
   " hon",
   "est"
  ],
  [
   " L",
   "isa"
  ],
  [
   " al",
   "most"
  ],
  [
   "et",
   "s"
  ],
  [
   "p",
   "ack"
  ],
  [
   " sa",
   "ved"
  ],
  [
   " T",
   "eddy"
  ],
  [
   "l",
   "ight"
  ],
  [
   "iss",
   "ors"
  ],
  [
   " cl",
   "own"
  ],
  [
   " suc",
   "cess"
  ],
  [
   " play",
   "ground"
  ],
  [
   " h",
   "ours"
  ],
  [
   " sandw",
   "ich"
  ],
  [
   " f",
   "il"
  ],
  [
   " E",
   "ven"
  ],
  [
   " ta",
   "ught"
  ],
  [
   " underst",
   "ood"
  ],
  [
   " ",
   "OK"
  ],
  [
   " A",
   "nn"
  ],
  [
   " minut",
   "es"
  ],
  [
   " sc",
   "issors"
  ],
  [
   "u",
   "al"
  ],
  [
   " pl",
   "ate"
  ],
  [
   " fing",
   "er"
  ],
  [
   "A",
   "re"
  ],
  [
   " f",
   "ig"
  ],
  [
   "ens",
   "ive"
  ],
  [
   " ru",
   "ined"
  ],
  [
   " fruit",
   "s"
  ],
  [
   " leg",
   "s"
  ],
  [
   " gener",
   "ous"
  ],
  [
   "et",
   "e"
  ],
  [
   " te",
   "ars"
  ],
  [
   " answ",
   "ered"
  ],
  [
   " comfort",
   "able"
  ],
  [
   " din",
   "osaur"
  ],
  [
   " exp",
   "ensive"
  ],
  [
   " ha",
   "ng"
  ],
  [
   "Sara",
   "h"
  ],
  [
   " mess",
   "y"
  ],
  [
   " sail",
   "ed"
  ],
  [
   "at",
   "es"
  ],
  [
   "D",
   "ad"
  ],
  [
   " t",
   "ick"
  ],
  [
   " cl",
   "ap"
  ],
  [
   "eci",
   "ally"
  ],
  [
   "T",
   "o"
  ],
  [
   " p",
   "as"
  ],
  [
   "S",
   "ue"
  ],
  [
   " st",
   "uff"
  ],
  [
   " me",
   "asure"
  ],
  [
   " es",
   "p"
  ],
  [
   " pas",
   "sed"
  ],
  [
   " esp",
   "ecially"
  ],
  [
   " exc",
   "ite"
  ],
  [
   " wa",
   "ves"
  ],
  [
   " mat",
   "ch"
  ],
  [
   " k",
   "issed"
  ],
  [
   " wa",
   "gged"
  ],
  [
   "id",
   "dle"
  ],
  [
   " lo",
   "ck"
  ],
  [
   " as",
   "king"
  ],
  [
   " tr",
   "ue"
  ],
  [
   " your",
   "self"
  ],
  [
   " tid",
   "y"
  ],
  [
   "ill",
   "ed"
  ],
  [
   " ho",
   "pping"
  ],
  [
   " sh",
   "ore"
  ],
  [
   " a",
   "dd"
  ],
  [
   " t",
   "ag"
  ],
  [
   " we",
   "ak"
  ],
  [
   " clos",
   "et"
  ],
  [
   " draw",
   "ing"
  ],
  [
   " of",
   "ten"
  ],
  [
   " f",
   "ake"
  ],
  [
   " d",
   "est"
  ],
  [
   " excite",
   "ment"
  ],
  [
   "o",
   "nd"
  ],
  [
   " B",
   "r"
  ],
  [
   " an",
   "g"
  ],
  [
   " b",
   "one"
  ],
  [
   " le",
   "ad"
  ],
  [
   " mist",
   "ake"
  ],
  [
   " p",
   "ay"
  ],
  [
   " ey",
   "e"
  ],
  [
   " fl",
   "uffy"
  ],
  [
   " bal",
   "ance"
  ],
  [
   "ig",
   "er"
  ],
  [
   " sp",
   "end"
  ],
  [
   " l",
   "it"
  ],
  [
   "ar",
   "l"
  ],
  [
   "J",
   "ill"
  ],
  [
   "art",
   "h"
  ],
  [
   "ell",
   "y"
  ],
  [
   " g",
   "ate"
  ],
  [
   " hurt",
   "s"
  ],
  [
   " ple",
   "ased"
  ],
  [
   " gr",
   "umpy"
  ],
  [
   "p",
   "s"
  ],
  [
   " w",
   "is"
  ],
  [
   " po",
   "or"
  ],
  [
   "sel",
   "ves"
  ],
  [
   " b",
   "oring"
  ],
  [
   " cat",
   "erp"
  ],
  [
   " caterp",
   "ill"
  ],
  [
   "a",
   "f"
  ],
  [
   "'",
   "d"
  ],
  [
   "oo",
   "f"
  ],
  [
   " s",
   "ug"
  ],
  [
   " m",
   "ic"
  ],
  [
   " ta",
   "ken"
  ],
  [
   " fr",
   "idge"
  ],
  [
   " gather",
   "ed"
  ],
  [
   " n",
   "umber"
  ],
  [
   " m",
   "iddle"
  ],
  [
   " so",
   "ld"
  ],
  [
   " get",
   "s"
  ],
  [
   " gl",
   "ue"
  ],
  [
   "J",
   "immy"
  ],
  [
   " Tweet",
   "y"
  ],
  [
   " tun",
   "n"
  ],
  [
   " return",
   "ed"
  ],
  [
   " ball",
   "s"
  ],
  [
   " tw",
   "irl"
  ],
  [
   " cl",
   "ass"
  ],
  [
   " lo",
   "g"
  ],
  [
   " wor",
   "king"
  ],
  [
   " mo",
   "ving"
  ],
  [
   " ch",
   "ange"
  ],
  [
   " inc",
   "red"
  ],
  [
   " es",
   "cap"
  ],
  [
   " determ",
   "ined"
  ],
  [
   " sug",
   "ar"
  ],
  [
   "in",
   "a"
  ],
  [
   "ot",
   "s"
  ],
  [
   "el",
   "p"
  ],
  [
   "if",
   "f"
  ],
  [
   " pack",
   "ed"
  ],
  [
   " whe",
   "el"
  ],
  [
   " s",
   "ighed"
  ],
  [
   " caterpill",
   "ar"
  ],
  [
   " s",
   "il"
  ],
  [
   " A",
   "t"
  ],
  [
   " so",
   "ap"
  ],
  [
   " disapp",
   "eared"
  ],
  [
   "W",
   "ho"
  ],
  [
   " flut",
   "e"
  ],
  [
   " I",
   "f"
  ],
  [
   "u",
   "ce"
  ],
  [
   " J",
   "im"
  ],
  [
   " wa",
   "nder"
  ],
  [
   " b",
   "orrow"
  ],
  [
   " kn",
   "ife"
  ],
  [
   "ill",
   "i"
  ],
  [
   "?\"",
   "."
  ],
  [
   " dr",
   "ank"
  ],
  [
   " gl",
   "ass"
  ],
  [
   " mo",
   "le"
  ],
  [
   "p",
   "ort"
  ],
  [
   " r",
   "id"
  ],
  [
   " r",
   "ad"
  ],
  [
   "ag",
   "ed"
  ],
  [
   " t",
   "ie"
  ],
  [
   " sw",
   "an"
  ],
  [
   " che",
   "ck"
  ],
  [
   " cont",
   "ent"
  ],
  [
   " prin",
   "ce"
  ],
  [
   " bed",
   "room"
  ],
  [
   "S",
   "orry"
  ],
  [
   "m",
   "b"
  ],
  [
   " ",
   "ed"
  ],
  [
   " t",
   "ent"
  ],
  [
   " E",
   "nd"
  ],
  [
   "l",
   "and"
  ],
  [
   " la",
   "zy"
  ],
  [
   " h",
   "orn"
  ],
  [
   " splas",
   "hed"
  ],
  [
   " st",
   "ones"
  ],
  [
   " B",
   "l"
  ],
  [
   " j",
   "am"
  ],
  [
   "op",
   "s"
  ],
  [
   "us",
   "hed"
  ],
  [
   " jo",
   "ke"
  ],
  [
   " chick",
   "en"
  ],
  [
   " l",
   "ying"
  ],
  [
   "The",
   "ir"
  ],
  [
   " co",
   "ver"
  ],
  [
   " walk",
   "s"
  ],
  [
   " br",
   "ush"
  ],
  [
   " egg",
   "s"
  ],
  [
   " d",
   "epend"
  ],
  [
   " Re",
   "x"
  ],
  [
   "H",
   "elp"
  ],
  [
   "M",
   "e"
  ],
  [
   " e",
   "ars"
  ],
  [
   " cra",
   "w"
  ],
  [
   " incred",
   "ible"
  ],
  [
   " ",
   "ind"
  ],
  [
   " no",
   "d"
  ],
  [
   " bo",
   "dy"
  ],
  [
   " truck",
   "s"
  ],
  [
   " ch",
   "oose"
  ],
  [
   " un",
   "us"
  ],
  [
   " craw",
   "led"
  ],
  [
   " unus",
   "ual"
  ],
  [
   "an",
   "ut"
  ],
  [
   " b",
   "ake"
  ],
  [
   " dog",
   "s"
  ],
  [
   "in",
   "ess"
  ],
  [
   " or",
   "d"
  ],
  [
   " tow",
   "el"
  ],
  [
   " jo",
   "g"
  ],
  [
   " might",
   "y"
  ],
  [
   " co",
   "vered"
  ],
  [
   " ha",
   "m"
  ],
  [
   "au",
   "l"
  ],
  [
   " pick",
   "s"
  ],
  [
   " gl",
   "ow"
  ],
  [
   " clean",
   "ed"
  ],
  [
   " wa",
   "gon"
  ],
  [
   " feather",
   "s"
  ],
  [
   "ot",
   "e"
  ],
  [
   " d",
   "ish"
  ],
  [
   " r",
   "ough"
  ],
  [
   " ",
   "er"
  ],
  [
   " dec",
   "ide"
  ],
  [
   " call",
   "ing"
  ],
  [
   " f",
   "ather"
  ],
  [
   " thank",
   "ful"
  ],
  [
   "il",
   "t"
  ],
  [
   "H",
   "ow"
  ],
  [
   " r",
   "at"
  ],
  [
   " B",
   "u"
  ],
  [
   " advent",
   "ur"
  ],
  [
   " sk",
   "ipped"
  ],
  [
   " we",
   "ek"
  ],
  [
   " mark",
   "et"
  ],
  [
   " grand",
   "pa"
  ],
  [
   " organ",
   "ized"
  ],
  [
   " S",
   "usie"
  ],
  [
   "at",
   "ing"
  ],
  [
   " m",
   "ir"
  ],
  [
   "G",
   "ra"
  ],
  [
   " bo",
   "ss"
  ],
  [
   " fam",
   "ous"
  ],
  [
   "in",
   "ation"
  ],
  [
   " happen",
   "ing"
  ],
  [
   " colour",
   "ful"
  ],
  [
   " disco",
   "vered"
  ],
  [
   " ac",
   "cept"
  ],
  [
   " poin",
   "ting"
  ],
  [
   " gu",
   "ess"
  ],
  [
   " h",
   "unt"
  ],
  [
   "im",
   "ed"
  ],
  [
   " lo",
   "se"
  ],
  [
   " th",
   "ick"
  ],
  [
   " m",
   "ummy"
  ],
  [
   " rel",
   "ax"
  ],
  [
   " wo",
   "lf"
  ],
  [
   " adventur",
   "ous"
  ],
  [
   " p",
   "il"
  ],
  [
   " v",
   "an"
  ],
  [
   " show",
   "s"
  ],
  [
   " need",
   "s"
  ],
  [
   " r",
   "are"
  ],
  [
   " jew",
   "el"
  ],
  [
   "g",
   "y"
  ],
  [
   " f",
   "is"
  ],
  [
   " pick",
   "ing"
  ],
  [
   " co",
   "ins"
  ],
  [
   " wr",
   "ote"
  ],
  [
   " boy",
   "s"
  ],
  [
   " f",
   "ool"
  ],
  [
   " smell",
   "y"
  ],
  [
   " wra",
   "pped"
  ],
  [
   " Le",
   "o"
  ],
  [
   " br",
   "illi"
  ],
  [
   "r",
   "or"
  ],
  [
   " mo",
   "v"
  ],
  [
   " gr",
   "own"
  ],
  [
   " bran",
   "ches"
  ],
  [
   " dist",
   "ance"
  ],
  [
   " tunn",
   "el"
  ],
  [
   " depend",
   "able"
  ],
  [
   " d",
   "ig"
  ],
  [
   "as",
   "ing"
  ],
  [
   " y",
   "arn"
  ],
  [
   " gra",
   "ce"
  ],
  [
   " off",
   "ered"
  ],
  [
   " brilli",
   "ant"
  ],
  [
   " on",
   "ce"
  ],
  [
   " on",
   "es"
  ],
  [
   "h",
   "ip"
  ],
  [
   " saf",
   "ely"
  ],
  [
   " d",
   "izzy"
  ],
  [
   " s",
   "ight"
  ],
  [
   " m",
   "ap"
  ],
  [
   " tw",
   "ig"
  ],
  [
   "B",
   "illy"
  ],
  [
   "M",
   "ummy"
  ],
  [
   " fr",
   "own"
  ],
  [
   " cra",
   "wl"
  ],
  [
   " we",
   "ird"
  ],
  [
   " med",
   "ic"
  ],
  [
   " B",
   "ella"
  ],
  [
   " pe",
   "anut"
  ],
  [
   "f",
   "ic"
  ],
  [
   "est",
   "ed"
  ],
  [
   " she",
   "ep"
  ],
  [
   " s",
   "na"
  ],
  [
   "ed",
   "ient"
  ],
  [
   "c",
   "ient"
  ],
  [
   " mix",
   "ed"
  ],
  [
   " eag",
   "er"
  ],
  [
   " impre",
   "ssed"
  ],
  [
   " Br",
   "own"
  ],
  [
   "A",
   "l"
  ],
  [
   "at",
   "ure"
  ],
  [
   " stu",
   "dy"
  ],
  [
   " medic",
   "ine"
  ],
  [
   "k",
   "in"
  ],
  [
   "a",
   "id"
  ],
  [
   "im",
   "p"
  ],
  [
   "or",
   "k"
  ],
  [
   " do",
   "lp"
  ],
  [
   " sc",
   "are"
  ],
  [
   " wor",
   "d"
  ],
  [
   " small",
   "er"
  ],
  [
   " ch",
   "ase"
  ],
  [
   " no",
   "isy"
  ],
  [
   "umb",
   "led"
  ],
  [
   " li",
   "cked"
  ],
  [
   "ol",
   "og"
  ],
  [
   " man",
   "aged"
  ],
  [
   " fool",
   "ish"
  ],
  [
   " dif",
   "fic"
  ],
  [
   " an",
   "cient"
  ],
  [
   " mom",
   "s"
  ],
  [
   "A",
   "my"
  ],
  [
   " mag",
   "n"
  ],
  [
   " fl",
   "ash"
  ],
  [
   " b",
   "itter"
  ],
  [
   " ang",
   "el"
  ],
  [
   " ap",
   "olog"
  ],
  [
   "he",
   "t"
  ],
  [
   " se",
   "ll"
  ],
  [
   " mo",
   "d"
  ],
  [
   " kind",
   "ness"
  ],
  [
   " he",
   "al"
  ],
  [
   " M",
   "y"
  ],
  [
   "ag",
   "es"
  ],
  [
   "ke",
   "ep"
  ],
  [
   "em",
   "o"
  ],
  [
   " te",
   "am"
  ],
  [
   " strong",
   "er"
  ],
  [
   " sound",
   "ed"
  ],
  [
   "bo",
   "dy"
  ],
  [
   " r",
   "ich"
  ],
  [
   " fall",
   "s"
  ],
  [
   " l",
   "amp"
  ],
  [
   "i",
   "que"
  ],
  [
   " D",
   "ucky"
  ],
  [
   "ugg",
   "led"
  ],
  [
   " we",
   "althy"
  ],
  [
   " is",
   "land"
  ],
  [
   " mir",
   "ror"
  ],
  [
   " diffic",
   "ult"
  ],
  [
   "S",
   "p"
  ],
  [
   " c",
   "her"
  ],
  [
   "y",
   "al"
  ],
  [
   " c",
   "one"
  ],
  [
   " c",
   "op"
  ],
  [
   " f",
   "ine"
  ],
  [
   " pain",
   "ting"
  ],
  [
   " sho",
   "ot"
  ],
  [
   " wall",
   "s"
  ],
  [
   " s",
   "ugg"
  ],
  [
   " B",
   "obby"
  ],
  [
   "ag",
   "het"
  ],
  [
   " un",
   "ique"
  ],
  [
   "aghet",
   "ti"
  ],
  [
   " t",
   "er"
  ],
  [
   " o",
   "w"
  ],
  [
   " sk",
   "in"
  ],
  [
   "Jo",
   "e"
  ],
  [
   " cr",
   "own"
  ],
  [
   " ob",
   "edient"
  ],
  [
   " sp",
   "aghetti"
  ],
  [
   "z",
   "ed"
  ],
  [
   "an",
   "ged"
  ],
  [
   " box",
   "es"
  ],
  [
   " bu",
   "ll"
  ],
  [
   "a",
   "ppy"
  ],
  [
   " cra",
   "ck"
  ],
  [
   " F",
   "red"
  ],
  [
   " butt",
   "ons"
  ],
  [
   " quest",
   "ions"
  ],
  [
   " j",
   "elly"
  ],
  [
   " ed",
   "ge"
  ],
  [
   " o",
   "k"
  ],
  [
   "ur",
   "ed"
  ],
  [
   "al",
   "ous"
  ],
  [
   "f",
   "ast"
  ],
  [
   " gi",
   "ving"
  ],
  [
   " Mr",
   "s"
  ],
  [
   " bu",
   "bbles"
  ],
  [
   "w",
   "ork"
  ],
  [
   " je",
   "alous"
  ],
  [
   "or",
   "y"
  ],
  [
   " d",
   "ull"
  ],
  [
   " bott",
   "om"
  ],
  [
   " P",
   "ete"
  ],
  [
   " break",
   "fast"
  ],
  [
   "a",
   "w"
  ],
  [
   " le",
   "an"
  ],
  [
   "S",
   "ally"
  ],
  [
   " a",
   "dded"
  ],
  [
   " dream",
   "s"
  ],
  [
   " wh",
   "ale"
  ],
  [
   "b",
   "in"
  ],
  [
   "ra",
   "g"
  ],
  [
   " m",
   "elt"
  ],
  [
   "e",
   "xt"
  ],
  [
   " R",
   "ed"
  ],
  [
   " de",
   "er"
  ],
  [
   " h",
   "arm"
  ],
  [
   " fig",
   "ure"
  ],
  [
   " ca",
   "bin"
  ],
  [
   " st",
   "ri"
  ],
  [
   "op",
   "h"
  ],
  [
   "W",
   "ell"
  ],
  [
   " p",
   "ant"
  ],
  [
   " ",
   "No"
  ],
  [
   " pain",
   "ted"
  ],
  [
   "umb",
   "ers"
  ],
  [
   " belong",
   "ed"
  ],
  [
   " lo",
   "yal"
  ],
  [
   "u",
   "nd"
  ],
  [
   " wa",
   "nd"
  ],
  [
   " for",
   "k"
  ],
  [
   "He",
   "re"
  ],
  [
   " loud",
   "er"
  ],
  [
   " real",
   "ised"
  ],
  [
   " c",
   "orn"
  ],
  [
   " balloon",
   "s"
  ],
  [
   " smo",
   "ke"
  ],
  [
   " banan",
   "a"
  ],
  [
   " sun",
   "fl"
  ],
  [
   " sque",
   "e"
  ],
  [
   " ter",
   "ri"
  ],
  [
   "w",
   "e"
  ],
  [
   "f",
   "a"
  ],
  [
   "g",
   "u"
  ],
  [
   " sh",
   "ake"
  ],
  [
   " mar",
   "ble"
  ],
  [
   " ro",
   "de"
  ],
  [
   "la",
   "imed"
  ],
  [
   " pe",
   "e"
  ],
  [
   "j",
   "ect"
  ],
  [
   " use",
   "ful"
  ],
  [
   " sn",
   "ee"
  ],
  [
   " a",
   "unt"
  ],
  [
   " to",
   "ug"
  ],
  [
   " again",
   "st"
  ],
  [
   " your",
   "s"
  ],
  [
   " tw",
   "ist"
  ],
  [
   " light",
   "s"
  ],
  [
   " sear",
   "ch"
  ],
  [
   " cray",
   "on"
  ],
  [
   " exc",
   "laimed"
  ],
  [
   "c",
   "il"
  ],
  [
   " help",
   "s"
  ],
  [
   " c",
   "ro"
  ],
  [
   " t",
   "ank"
  ],
  [
   "ent",
   "ion"
  ],
  [
   " t",
   "ummy"
  ],
  [
   " Bob",
   "o"
  ],
  [
   " ",
   "icy"
  ],
  [
   " cheer",
   "ful"
  ],
  [
   " n",
   "urse"
  ],
  [
   " Bl",
   "ue"
  ],
  [
   " pen",
   "cil"
  ],
  [
   "J",
   "en"
  ],
  [
   "ll",
   "ie"
  ],
  [
   " f",
   "our"
  ],
  [
   " t",
   "urt"
  ],
  [
   " fav",
   "our"
  ],
  [
   " prin",
   "t"
  ],
  [
   " hat",
   "s"
  ],
  [
   " ca",
   "ct"
  ],
  [
   " th",
   "ose"
  ],
  [
   " ta",
   "pe"
  ],
  [
   " r",
   "oof"
  ],
  [
   " bu",
   "ilt"
  ],
  [
   " n",
   "umbers"
  ],
  [
   "y",
   "e"
  ],
  [
   "o",
   "ppy"
  ],
  [
   " no",
   "sy"
  ],
  [
   " tool",
   "s"
  ],
  [
   " e",
   "arth"
  ],
  [
   "keep",
   "er"
  ],
  [
   " l",
   "ow"
  ],
  [
   "he",
   "ad"
  ],
  [
   " do",
   "ve"
  ],
  [
   " un",
   "l"
  ],
  [
   " dream",
   "ed"
  ],
  [
   " lift",
   "ed"
  ],
  [
   "R",
   "e"
  ],
  [
   " f",
   "re"
  ],
  [
   " c",
   "udd"
  ],
  [
   " M",
   "ummy"
  ],
  [
   " comp",
   "ass"
  ],
  [
   " pen",
   "ny"
  ],
  [
   "ol",
   "a"
  ],
  [
   " en",
   "vel"
  ],
  [
   " ab",
   "ove"
  ],
  [
   " rec",
   "ord"
  ],
  [
   " toug",
   "h"
  ],
  [
   " favour",
   "ite"
  ],
  [
   " cact",
   "us"
  ],
  [
   "oo",
   "p"
  ],
  [
   "re",
   "ady"
  ],
  [
   " hard",
   "er"
  ],
  [
   " lea",
   "ving"
  ],
  [
   " squ",
   "are"
  ],
  [
   " bag",
   "s"
  ],
  [
   " ju",
   "icy"
  ],
  [
   " pract",
   "ice"
  ],
  [
   " circ",
   "les"
  ],
  [
   " M",
   "ar"
  ],
  [
   " ex",
   "t"
  ],
  [
   " thought",
   "ful"
  ],
  [
   " st",
   "amp"
  ],
  [
   "um",
   "sy"
  ],
  [
   " t",
   "iger"
  ],
  [
   " al",
   "ready"
  ],
  [
   " e",
   "ld"
  ],
  [
   "re",
   "ss"
  ],
  [
   " kind",
   "s"
  ],
  [
   " bus",
   "hes"
  ],
  [
   " To",
   "day"
  ],
  [
   " turt",
   "le"
  ],
  [
   " say",
   "ing"
  ],
  [
   " r",
   "ice"
  ],
  [
   "ia",
   "ble"
  ],
  [
   " dream",
   "ing"
  ],
  [
   " des",
   "k"
  ],
  [
   "ars",
   "h"
  ],
  [
   "ber",
   "ries"
  ],
  [
   " att",
   "ic"
  ],
  [
   " h",
   "ipp"
  ],
  [
   " sl",
   "ipped"
  ],
  [
   " res",
   "c"
  ],
  [
   " rel",
   "iable"
  ],
  [
   "o",
   "e"
  ],
  [
   "om",
   "ed"
  ],
  [
   "ous",
   "es"
  ],
  [
   " ru",
   "b"
  ],
  [
   " count",
   "ed"
  ],
  [
   " perf",
   "orm"
  ],
  [
   " inv",
   "ited"
  ],
  [
   " scre",
   "en"
  ],
  [
   " ind",
   "epend"
  ],
  [
   " boss",
   "y"
  ],
  [
   "ir",
   "p"
  ],
  [
   "p",
   "es"
  ],
  [
   " le",
   "op"
  ],
  [
   " see",
   "m"
  ],
  [
   "udd",
   "y"
  ],
  [
   " off",
   "ice"
  ],
  [
   " fi",
   "er"
  ],
  [
   " loud",
   "ly"
  ],
  [
   "in",
   "ary"
  ],
  [
   " remind",
   "ed"
  ],
  [
   " scr",
   "at"
  ],
  [
   "am",
   "ond"
  ],
  [
   " envel",
   "ope"
  ],
  [
   " co",
   "st"
  ],
  [
   " L",
   "ittle"
  ],
  [
   " clean",
   "ing"
  ],
  [
   "w",
   "ards"
  ],
  [
   " ar",
   "row"
  ],
  [
   " stra",
   "w"
  ],
  [
   " happ",
   "iness"
  ],
  [
   " N",
   "emo"
  ],
  [
   " di",
   "amond"
  ],
  [
   " b",
   "er"
  ],
  [
   "le",
   "v"
  ],
  [
   " not",
   "ice"
  ],
  [
   " ch",
   "ar"
  ],
  [
   " excited",
   "ly"
  ],
  [
   " enjoy",
   "ing"
  ],
  [
   "bb",
   "orn"
  ],
  [
   " pa",
   "le"
  ],
  [
   " sc",
   "ale"
  ],
  [
   " coo",
   "king"
  ],
  [
   " success",
   "ful"
  ],
  [
   " ext",
   "ra"
  ],
  [
   " h",
   "ouses"
  ],
  [
   " ber",
   "ries"
  ],
  [
   " stu",
   "bborn"
  ],
  [
   " know",
   "s"
  ],
  [
   " show",
   "ing"
  ],
  [
   " us",
   "ing"
  ],
  [
   " ru",
   "bbed"
  ],
  [
   "at",
   "ely"
  ],
  [
   " laugh",
   "s"
  ],
  [
   "up",
   "id"
  ],
  [
   " f",
   "ountain"
  ],
  [
   " y",
   "og"
  ],
  [
   " delight",
   "ed"
  ],
  [
   " st",
   "airs"
  ],
  [
   " pant",
   "s"
  ],
  [
   ",",
   "”"
  ],
  [
   " y",
   "et"
  ],
  [
   " wa",
   "ke"
  ],
  [
   "t",
   "ime"
  ],
  [
   "in",
   "al"
  ],
  [
   " play",
   "ful"
  ],
  [
   "v",
   "ice"
  ],
  [
   " mean",
   "s"
  ],
  [
   " li",
   "br"
  ],
  [
   " W",
   "hile"
  ],
  [
   " spoil",
   "ed"
  ],
  [
   " sugg",
   "ested"
  ],
  [
   " so",
   "fa"
  ],
  [
   " cl",
   "umsy"
  ],
  [
   "it",
   "her"
  ],
  [
   " la",
   "w"
  ],
  [
   "ra",
   "ge"
  ],
  [
   " sto",
   "ve"
  ],
  [
   " de",
   "ad"
  ],
  [
   " t",
   "imes"
  ],
  [
   " pre",
   "p"
  ],
  [
   " s",
   "uit"
  ],
  [
   " t",
   "ask"
  ],
  [
   " mar",
   "ch"
  ],
  [
   " boun",
   "ce"
  ],
  [
   " g",
   "oose"
  ],
  [
   " par",
   "rot"
  ],
  [
   "Sp",
   "ot"
  ],
  [
   " sunfl",
   "ower"
  ],
  [
   " terri",
   "ble"
  ],
  [
   " hipp",
   "o"
  ],
  [
   " s",
   "on"
  ],
  [
   "et",
   "it"
  ],
  [
   "ur",
   "ing"
  ],
  [
   " was",
   "hed"
  ],
  [
   " learn",
   "ing"
  ],
  [
   " bra",
   "ce"
  ],
  [
   " kn",
   "ock"
  ],
  [
   " ser",
   "ious"
  ],
  [
   " escap",
   "e"
  ],
  [
   " flash",
   "light"
  ],
  [
   " independ",
   "ent"
  ],
  [
   " fier",
   "ce"
  ],
  [
   "ig",
   "inal"
  ],
  [
   " brace",
   "let"
  ],
  [
   " so",
   "ar"
  ],
  [
   "or",
   "ge"
  ],
  [
   "l",
   "ies"
  ],
  [
   " st",
   "ream"
  ],
  [
   " expl",
   "ored"
  ],
  [
   " Tweet",
   "ie"
  ],
  [
   "nd",
   "pa"
  ],
  [
   " gas",
   "ped"
  ],
  [
   " whisp",
   "ered"
  ],
  [
   " er",
   "aser"
  ],
  [
   " fre",
   "sh"
  ],
  [
   " comp",
   "etit"
  ],
  [
   "O",
   "w"
  ],
  [
   " S",
   "m"
  ],
  [
   "in",
   "es"
  ],
  [
   " c",
   "am"
  ],
  [
   " j",
   "ack"
  ],
  [
   " g",
   "em"
  ],
  [
   " bright",
   "ly"
  ],
  [
   " for",
   "th"
  ],
  [
   " ba",
   "ld"
  ],
  [
   " pat",
   "ch"
  ],
  [
   " n",
   "orm"
  ],
  [
   " sw",
   "ord"
  ],
  [
   " pour",
   "ed"
  ],
  [
   " tom",
   "ato"
  ],
  [
   " seed",
   "s"
  ],
  [
   " compass",
   "ion"
  ],
  [
   " so",
   "ck"
  ],
  [
   " sp",
   "un"
  ],
  [
   " b",
   "ump"
  ],
  [
   " jo",
   "ined"
  ],
  [
   " R",
   "ose"
  ],
  [
   " nut",
   "s"
  ],
  [
   " war",
   "ned"
  ],
  [
   " st",
   "umbled"
  ],
  [
   " st",
   "upid"
  ],
  [
   " or",
   "iginal"
  ],
  [
   " sh",
   "one"
  ],
  [
   " You",
   "r"
  ],
  [
   " F",
   "in"
  ],
  [
   "a",
   "by"
  ],
  [
   " way",
   "s"
  ],
  [
   "an",
   "ger"
  ],
  [
   "S",
   "ee"
  ],
  [
   " sol",
   "ve"
  ],
  [
   " val",
   "u"
  ],
  [
   " pir",
   "ate"
  ],
  [
   " sp",
   "illed"
  ],
  [
   " dest",
   "ro"
  ],
  [
   " them",
   "selves"
  ],
  [
   " mov",
   "ie"
  ],
  [
   "E",
   "m"
  ],
  [
   " re",
   "f"
  ],
  [
   " me",
   "al"
  ],
  [
   " b",
   "arn"
  ],
  [
   " che",
   "ap"
  ],
  [
   "ip",
   "e"
  ],
  [
   " fr",
   "ight"
  ],
  [
   " eld",
   "erly"
  ],
  [
   " norm",
   "al"
  ],
  [
   " ",
   "ing"
  ],
  [
   " th",
   "u"
  ],
  [
   " be",
   "et"
  ],
  [
   "ac",
   "he"
  ],
  [
   " z",
   "ip"
  ],
  [
   " z",
   "ipp"
  ],
  [
   " sear",
   "ching"
  ],
  [
   " pri",
   "ze"
  ],
  [
   " tr",
   "unk"
  ],
  [
   " reg",
   "ular"
  ],
  [
   " f",
   "rag"
  ],
  [
   "d",
   "om"
  ],
  [
   " go",
   "at"
  ],
  [
   " car",
   "p"
  ],
  [
   " c",
   "ards"
  ],
  [
   "red",
   "ient"
  ],
  [
   " When",
   "ever"
  ],
  [
   " lo",
   "cked"
  ],
  [
   " wra",
   "p"
  ],
  [
   " adm",
   "ired"
  ],
  [
   " Al",
   "ice"
  ],
  [
   " r",
   "ushed"
  ],
  [
   " ing",
   "redient"
  ],
  [
   "c",
   "om"
  ],
  [
   "ill",
   "a"
  ],
  [
   " po",
   "st"
  ],
  [
   "app",
   "ing"
  ],
  [
   " des",
   "ign"
  ],
  [
   " bat",
   "ter"
  ],
  [
   " wip",
   "ed"
  ],
  [
   " grace",
   "ful"
  ],
  [
   " ch",
   "anged"
  ],
  [
   "e",
   "orge"
  ],
  [
   " cam",
   "era"
  ],
  [
   "is",
   "k"
  ],
  [
   "at",
   "ter"
  ],
  [
   " sp",
   "ace"
  ],
  [
   " delic",
   "ate"
  ],
  [
   "c",
   "orn"
  ],
  [
   " bl",
   "oom"
  ],
  [
   " kick",
   "ed"
  ],
  [
   " sal",
   "ad"
  ],
  [
   " hel",
   "m"
  ],
  [
   " sn",
   "iff"
  ],
  [
   " dolp",
   "hin"
  ],
  [
   " valu",
   "able"
  ],
  [
   "n",
   "ow"
  ],
  [
   " sn",
   "e"
  ],
  [
   " met",
   "al"
  ],
  [
   " gu",
   "il"
  ],
  [
   " guil",
   "ty"
  ],
  [
   "l",
   "oo"
  ],
  [
   "ob",
   "y"
  ],
  [
   " sk",
   "ip"
  ],
  [
   " co",
   "co"
  ],
  [
   "oom",
   "y"
  ],
  [
   " en",
   "orm"
  ],
  [
   " imag",
   "ined"
  ],
  [
   " ad",
   "vice"
  ],
  [
   " ingredient",
   "s"
  ],
  [
   " coco",
   "a"
  ],
  [
   " enorm",
   "ous"
  ],
  [
   " p",
   "ow"
  ],
  [
   " st",
   "at"
  ],
  [
   " re",
   "p"
  ],
  [
   "ie",
   "f"
  ],
  [
   " be",
   "ak"
  ],
  [
   " C",
   "l"
  ],
  [
   "co",
   "d"
  ],
  [
   " P",
   "olly"
  ],
  [
   " gu",
   "ard"
  ],
  [
   " c",
   "ush"
  ],
  [
   " cir",
   "cle"
  ],
  [
   " ear",
   "ly"
  ],
  [
   " cl",
   "ay"
  ],
  [
   " L",
   "ook"
  ],
  [
   " hand",
   "le"
  ],
  [
   "is",
   "ion"
  ],
  [
   " set",
   "t"
  ],
  [
   " cho",
   "se"
  ],
  [
   " care",
   "less"
  ],
  [
   " bar",
   "ber"
  ],
  [
   " ham",
   "mer"
  ],
  [
   " ob",
   "ject"
  ],
  [
   " leop",
   "ard"
  ],
  [
   " frag",
   "ile"
  ],
  [
   " pop",
   "corn"
  ],
  [
   " be",
   "es"
  ],
  [
   " li",
   "z"
  ],
  [
   "!\"",
   "."
  ],
  [
   " sw",
   "e"
  ],
  [
   "ber",
   "ry"
  ],
  [
   " does",
   "n"
  ],
  [
   " ra",
   "ced"
  ],
  [
   "up",
   "er"
  ],
  [
   " whe",
   "at"
  ],
  [
   " cand",
   "le"
  ],
  [
   " Sm",
   "ith"
  ],
  [
   " str",
   "anger"
  ],
  [
   " fright",
   "ened"
  ],
  [
   " f",
   "u"
  ],
  [
   " v",
   "i"
  ],
  [
   " en",
   "v"
  ],
  [
   " stop",
   "s"
  ],
  [
   " del",
   "iver"
  ],
  [
   " window",
   "s"
  ],
  [
   " spark",
   "led"
  ],
  [
   " shap",
   "e"
  ],
  [
   " coll",
   "ar"
  ],
  [
   " comp",
   "let"
  ],
  [
   " c",
   "ity"
  ],
  [
   " cro",
   "cod"
  ],
  [
   " W",
   "h"
  ],
  [
   "ap",
   "a"
  ],
  [
   " imp",
   "at"
  ],
  [
   " ste",
   "al"
  ],
  [
   " pack",
   "age"
  ],
  [
   " celebr",
   "ate"
  ],
  [
   "ar",
   "ian"
  ],
  [
   " her",
   "o"
  ],
  [
   " b",
   "ri"
  ],
  [
   " lo",
   "ll"
  ],
  [
   " tr",
   "op"
  ],
  [
   " tr",
   "ump"
  ],
  [
   " com",
   "b"
  ],
  [
   "em",
   "ent"
  ],
  [
   " open",
   "s"
  ],
  [
   "gg",
   "ing"
  ],
  [
   " rest",
   "aur"
  ],
  [
   " impre",
   "ss"
  ],
  [
   "W",
   "hile"
  ],
  [
   " n",
   "ature"
  ],
  [
   " pen",
   "gu"
  ],
  [
   " restaur",
   "ant"
  ],
  [
   "r",
   "ay"
  ],
  [
   " m",
   "is"
  ],
  [
   "ar",
   "oo"
  ],
  [
   " re",
   "ce"
  ],
  [
   " sh",
   "ark"
  ],
  [
   " ot",
   "ter"
  ],
  [
   " find",
   "ing"
  ],
  [
   " st",
   "age"
  ],
  [
   " ar",
   "g"
  ],
  [
   " per",
   "m"
  ],
  [
   " count",
   "ing"
  ],
  [
   " grow",
   "ing"
  ],
  [
   " miss",
   "ing"
  ],
  [
   " fing",
   "ers"
  ],
  [
   " f",
   "lex"
  ],
  [
   " A",
   "lex"
  ],
  [
   " l",
   "aser"
  ],
  [
   " char",
   "ming"
  ],
  [
   " destro",
   "y"
  ],
  [
   " beet",
   "le"
  ],
  [
   " impat",
   "ient"
  ],
  [
   " loll",
   "ip"
  ],
  [
   "ang",
   "aroo"
  ],
  [
   " m",
   "ay"
  ],
  [
   "al",
   "k"
  ],
  [
   "g",
   "ust"
  ],
  [
   " th",
   "irst"
  ],
  [
   " par",
   "ade"
  ],
  [
   " magn",
   "et"
  ],
  [
   " trop",
   "hy"
  ],
  [
   " k",
   "angaroo"
  ],
  [
   " l",
   "ed"
  ],
  [
   " h",
   "ay"
  ],
  [
   "ig",
   "ent"
  ],
  [
   " g",
   "um"
  ],
  [
   " me",
   "m"
  ],
  [
   " int",
   "ell"
  ],
  [
   " h",
   "ive"
  ],
  [
   " proud",
   "ly"
  ],
  [
   " P",
   "e"
  ],
  [
   " tow",
   "ers"
  ],
  [
   "ation",
   "s"
  ],
  [
   " ve",
   "il"
  ],
  [
   " tra",
   "vel"
  ],
  [
   " res",
   "ist"
  ],
  [
   " thin",
   "king"
  ],
  [
   " quest",
   "ion"
  ],
  [
   " E",
   "lla"
  ],
  [
   " cri",
   "cket"
  ],
  [
   " pee",
   "ked"
  ],
  [
   " dis",
   "gust"
  ],
  [
   "an",
   "ny"
  ],
  [
   " F",
   "r"
  ],
  [
   " en",
   "c"
  ],
  [
   " t",
   "ied"
  ],
  [
   " un",
   "k"
  ],
  [
   " boat",
   "s"
  ],
  [
   " bel",
   "t"
  ],
  [
   " tell",
   "ing"
  ],
  [
   " hair",
   "y"
  ],
  [
   " hun",
   "g"
  ],
  [
   "cy",
   "cle"
  ],
  [
   " spr",
   "ing"
  ],
  [
   " pig",
   "e"
  ],
  [
   " hum",
   "ble"
  ],
  [
   " hur",
   "ry"
  ],
  [
   " carp",
   "et"
  ],
  [
   " liz",
   "ard"
  ],
  [
   " flex",
   "ible"
  ],
  [
   " thirst",
   "y"
  ],
  [
   " a",
   "x"
  ],
  [
   " u",
   "r"
  ],
  [
   " nam",
   "es"
  ],
  [
   "or",
   "ant"
  ],
  [
   " s",
   "udden"
  ],
  [
   " jo",
   "lly"
  ],
  [
   " stick",
   "ers"
  ],
  [
   " friends",
   "hip"
  ],
  [
   " ord",
   "inary"
  ],
  [
   " stat",
   "ue"
  ],
  [
   " T",
   "r"
  ],
  [
   " ho",
   "se"
  ],
  [
   "a",
   "wn"
  ],
  [
   " to",
   "ast"
  ],
  [
   "b",
   "led"
  ],
  [
   " mu",
   "sh"
  ],
  [
   " sleep",
   "ing"
  ],
  [
   " M",
   "ike"
  ],
  [
   " att",
   "ract"
  ],
  [
   "op",
   "hone"
  ],
  [
   " pe",
   "pper"
  ],
  [
   " B",
   "uddy"
  ],
  [
   " trump",
   "et"
  ],
  [
   " intell",
   "igent"
  ],
  [
   " mush",
   "room"
  ],
  [
   "ic",
   "t"
  ],
  [
   " en",
   "g"
  ],
  [
   "ro",
   "be"
  ],
  [
   " read",
   "ing"
  ],
  [
   " mo",
   "der"
  ],
  [
   " hunt",
   "er"
  ],
  [
   " compassion",
   "ate"
  ],
  [
   " crocod",
   "ile"
  ],
  [
   " p",
   "ed"
  ],
  [
   " r",
   "ug"
  ],
  [
   " lo",
   "ad"
  ],
  [
   " t",
   "ur"
  ],
  [
   " m",
   "op"
  ],
  [
   "n",
   "own"
  ],
  [
   " clo",
   "ck"
  ],
  [
   " t",
   "em"
  ],
  [
   " bright",
   "er"
  ],
  [
   " ha",
   "lf"
  ],
  [
   " re",
   "fused"
  ],
  [
   " al",
   "ert"
  ],
  [
   " b",
   "in"
  ],
  [
   "g",
   "est"
  ],
  [
   " D",
   "ave"
  ],
  [
   " wa",
   "ff"
  ],
  [
   " ru",
   "les"
  ],
  [
   " ma",
   "ze"
  ],
  [
   " pe",
   "bble"
  ],
  [
   " sor",
   "ts"
  ],
  [
   " s",
   "ym"
  ],
  [
   " th",
   "ief"
  ],
  [
   " ign",
   "orant"
  ],
  [
   " moder",
   "n"
  ],
  [
   "c",
   "u"
  ],
  [
   "in",
   "ce"
  ],
  [
   " an",
   "x"
  ],
  [
   " fl",
   "our"
  ],
  [
   " old",
   "er"
  ],
  [
   " imp",
   "ro"
  ],
  [
   " pain",
   "ter"
  ],
  [
   " g",
   "uit"
  ],
  [
   " disco",
   "ver"
  ],
  [
   " w",
   "itch"
  ],
  [
   " spo",
   "ke"
  ],
  [
   " p",
   "urse"
  ],
  [
   " mail",
   "box"
  ],
  [
   " pil",
   "ot"
  ],
  [
   "com",
   "fort"
  ],
  [
   " ax",
   "e"
  ],
  [
   " tur",
   "key"
  ],
  [
   " big",
   "gest"
  ],
  [
   "e",
   "er"
  ],
  [
   " p",
   "h"
  ],
  [
   " f",
   "at"
  ],
  [
   " be",
   "an"
  ],
  [
   " d",
   "ug"
  ],
  [
   " re",
   "ind"
  ],
  [
   "ug",
   "ged"
  ],
  [
   " end",
   "ing"
  ],
  [
   " cra",
   "zy"
  ],
  [
   "bo",
   "l"
  ],
  [
   " plac",
   "ed"
  ],
  [
   " respect",
   "ful"
  ],
  [
   " sur",
   "f"
  ],
  [
   "i",
   "v"
  ],
  [
   " g",
   "or"
  ],
  [
   " s",
   "end"
  ],
  [
   " cat",
   "s"
  ],
  [
   " to",
   "oth"
  ],
  [
   "ic",
   "hes"
  ],
  [
   " cool",
   "er"
  ],
  [
   " he",
   "dge"
  ],
  [
   " sa",
   "uce"
  ],
  [
   "oph",
   "ie"
  ],
  [
   " cost",
   "um"
  ],
  [
   " thu",
   "nder"
  ],
  [
   " un",
   "comfort"
  ],
  [
   " reind",
   "eer"
  ],
  [
   " sym",
   "bol"
  ],
  [
   " uncomfort",
   "able"
  ],
  [
   "ar",
   "ry"
  ],
  [
   "ill",
   "ie"
  ],
  [
   " bird",
   "ie"
  ],
  [
   " p",
   "ump"
  ],
  [
   " bre",
   "at"
  ],
  [
   " tra",
   "sh"
  ],
  [
   " st",
   "ation"
  ],
  [
   " sh",
   "iver"
  ],
  [
   "c",
   "ream"
  ],
  [
   " pers",
   "ist"
  ],
  [
   " all",
   "owed"
  ],
  [
   " pot",
   "ato"
  ],
  [
   " un",
   "pack"
  ],
  [
   " harm",
   "less"
  ],
  [
   " env",
   "ious"
  ],
  [
   " impress",
   "ive"
  ],
  [
   " disgust",
   "ing"
  ],
  [
   " pige",
   "on"
  ],
  [
   " w",
   "ing"
  ],
  [
   " o",
   "at"
  ],
  [
   " j",
   "ug"
  ],
  [
   " c",
   "ur"
  ],
  [
   " A",
   "re"
  ],
  [
   "us",
   "ed"
  ],
  [
   " b",
   "ase"
  ],
  [
   " re",
   "co"
  ],
  [
   " hold",
   "s"
  ],
  [
   " le",
   "ash"
  ],
  [
   "ho",
   "st"
  ],
  [
   " sc",
   "atter"
  ],
  [
   " s",
   "uper"
  ],
  [
   " P",
   "apa"
  ],
  [
   " y",
   "awn"
  ],
  [
   " anx",
   "ious"
  ],
  [
   " ch",
   "ain"
  ],
  [
   " cre",
   "ate"
  ],
  [
   " draw",
   "er"
  ],
  [
   " tra",
   "ins"
  ],
  [
   " K",
   "im"
  ],
  [
   " m",
   "ask"
  ],
  [
   "c",
   "ope"
  ],
  [
   "i",
   "ence"
  ],
  [
   " slid",
   "es"
  ],
  [
   " pi",
   "ano"
  ],
  [
   " S",
   "now"
  ],
  [
   " gor",
   "illa"
  ],
  [
   "i",
   "o"
  ],
  [
   " b",
   "ent"
  ],
  [
   "ie",
   "w"
  ],
  [
   " v",
   "ine"
  ],
  [
   " brother",
   "s"
  ],
  [
   " any",
   "where"
  ],
  [
   " t",
   "ire"
  ],
  [
   " whe",
   "els"
  ],
  [
   " foot",
   "ball"
  ],
  [
   " spe",
   "ed"
  ],
  [
   " ch",
   "asing"
  ],
  [
   " jack",
   "et"
  ],
  [
   " unk",
   "nown"
  ],
  [
   " sandw",
   "iches"
  ],
  [
   "G",
   "o"
  ],
  [
   "g",
   "n"
  ],
  [
   " start",
   "s"
  ],
  [
   " c",
   "ell"
  ],
  [
   " la",
   "b"
  ],
  [
   " v",
   "est"
  ],
  [
   "op",
   "us"
  ],
  [
   " listen",
   "ing"
  ],
  [
   " re",
   "pe"
  ],
  [
   " twirl",
   "ed"
  ],
  [
   " sil",
   "ver"
  ],
  [
   " u",
   "mb"
  ],
  [
   " enc",
   "ou"
  ],
  [
   " v",
   "iew"
  ],
  [
   "ct",
   "opus"
  ],
  [
   " umb",
   "re"
  ],
  [
   "r",
   "n"
  ],
  [
   " ",
   "\n"
  ],
  [
   "Y",
   "ay"
  ],
  [
   " g",
   "ir"
  ],
  [
   "ir",
   "on"
  ],
  [
   " ne",
   "at"
  ],
  [
   "ter",
   "n"
  ],
  [
   " ch",
   "im"
  ],
  [
   "i",
   "kes"
  ],
  [
   " sho",
   "e"
  ],
  [
   " sh",
   "ocked"
  ],
  [
   " ent",
   "h"
  ],
  [
   " J",
   "erry"
  ],
  [
   "lc",
   "ano"
  ],
  [
   " av",
   "o"
  ],
  [
   " vi",
   "ol"
  ],
  [
   " motor",
   "cycle"
  ],
  [
   " guit",
   "ar"
  ],
  [
   " g",
   "host"
  ],
  [
   " o",
   "ctopus"
  ],
  [
   " chim",
   "ney"
  ],
  [
   "al",
   "ed"
  ],
  [
   " sad",
   "ly"
  ],
  [
   "ec",
   "ause"
  ],
  [
   " ra",
   "ven"
  ],
  [
   " mu",
   "ff"
  ],
  [
   " dri",
   "ving"
  ],
  [
   " b",
   "icy"
  ],
  [
   " dist",
   "ant"
  ],
  [
   " bat",
   "ht"
  ],
  [
   " carry",
   "ing"
  ],
  [
   " card",
   "board"
  ],
  [
   " fil",
   "m"
  ],
  [
   " sn",
   "uggled"
  ],
  [
   " shop",
   "keeper"
  ],
  [
   " Gra",
   "ndpa"
  ],
  [
   " attract",
   "ive"
  ],
  [
   " nice",
   "ly"
  ],
  [
   " sh",
   "ine"
  ],
  [
   " Joe",
   "y"
  ],
  [
   " squ",
   "ash"
  ],
  [
   " sh",
   "ield"
  ],
  [
   " shell",
   "s"
  ],
  [
   " L",
   "ola"
  ],
  [
   " h",
   "arsh"
  ],
  [
   " enth",
   "us"
  ],
  [
   " batht",
   "ub"
  ],
  [
   "o",
   "ot"
  ],
  [
   "ut",
   "h"
  ],
  [
   "ad",
   "o"
  ],
  [
   " tr",
   "ay"
  ],
  [
   "M",
   "ary"
  ],
  [
   " forg",
   "ave"
  ],
  [
   "os",
   "ie"
  ],
  [
   "o",
   "cer"
  ],
  [
   " n",
   "ail"
  ],
  [
   " creature",
   "s"
  ],
  [
   " a",
   "head"
  ],
  [
   " butterf",
   "lies"
  ],
  [
   " helm",
   "et"
  ],
  [
   " T",
   "oby"
  ],
  [
   " eng",
   "ine"
  ],
  [
   " ph",
   "ot"
  ],
  [
   " viol",
   "in"
  ],
  [
   "hin",
   "ocer"
  ],
  [
   "hinocer",
   "os"
  ],
  [
   "u",
   "d"
  ],
  [
   " ",
   "U"
  ],
  [
   " be",
   "ep"
  ],
  [
   "re",
   "nder"
  ],
  [
   " pe",
   "ach"
  ],
  [
   " swing",
   "ing"
  ],
  [
   " c",
   "amp"
  ],
  [
   " gif",
   "ted"
  ],
  [
   " stir",
   "red"
  ],
  [
   "Al",
   "ice"
  ],
  [
   "isk",
   "ers"
  ],
  [
   " persist",
   "ent"
  ],
  [
   " reco",
   "gn"
  ],
  [
   " go",
   "al"
  ],
  [
   " any",
   "way"
  ],
  [
   "G",
   "ive"
  ],
  [
   " put",
   "ting"
  ],
  [
   " tra",
   "p"
  ],
  [
   " beh",
   "ave"
  ],
  [
   " pretend",
   "ing"
  ],
  [
   " w",
   "ire"
  ],
  [
   " help",
   "less"
  ],
  [
   " tri",
   "cks"
  ],
  [
   " organ",
   "ize"
  ],
  [
   " pract",
   "iced"
  ],
  [
   " decor",
   "ate"
  ],
  [
   " cush",
   "ion"
  ],
  [
   " mic",
   "r"
  ],
  [
   " micr",
   "ophone"
  ],
  [
   "e",
   "f"
  ],
  [
   " she",
   "l"
  ],
  [
   "s",
   "hed"
  ],
  [
   " h",
   "ook"
  ],
  [
   " sh",
   "ort"
  ],
  [
   "n",
   "oon"
  ],
  [
   " ac",
   "orn"
  ],
  [
   " gl",
   "ove"
  ],
  [
   " stret",
   "ched"
  ],
  [
   " g",
   "ym"
  ],
  [
   " sh",
   "aking"
  ],
  [
   " wis",
   "hes"
  ],
  [
   " zipp",
   "er"
  ],
  [
   " r",
   "hinoceros"
  ],
  [
   " sur",
   "render"
  ],
  [
   " after",
   "noon"
  ],
  [
   " m",
   "ill"
  ],
  [
   " s",
   "ink"
  ],
  [
   " bad",
   "ly"
  ],
  [
   " tra",
   "ck"
  ],
  [
   "er",
   "able"
  ],
  [
   " se",
   "co"
  ],
  [
   " fear",
   "ful"
  ],
  [
   " pat",
   "tern"
  ],
  [
   " bicy",
   "cle"
  ],
  [
   " seco",
   "nd"
  ],
  [
   " o",
   "y"
  ],
  [
   " to",
   "il"
  ],
  [
   " He",
   "re"
  ],
  [
   "c",
   "ut"
  ],
  [
   "ri",
   "c"
  ],
  [
   " st",
   "ack"
  ],
  [
   " se",
   "al"
  ],
  [
   "ic",
   "es"
  ],
  [
   " ro",
   "se"
  ],
  [
   " qu",
   "ite"
  ],
  [
   " beaut",
   "y"
  ],
  [
   " jump",
   "s"
  ],
  [
   " shout",
   "s"
  ],
  [
   " letter",
   "s"
  ],
  [
   " gl",
   "oomy"
  ],
  [
   " trou",
   "bled"
  ],
  [
   " mis",
   "erable"
  ],
  [
   "im",
   "i"
  ],
  [
   " M",
   "ark"
  ],
  [
   " cry",
   "st"
  ],
  [
   " G",
   "ive"
  ],
  [
   " ar",
   "t"
  ],
  [
   " mess",
   "age"
  ],
  [
   " cr",
   "ow"
  ],
  [
   " pap",
   "ers"
  ],
  [
   " tri",
   "ck"
  ],
  [
   " fire",
   "man"
  ],
  [
   " monkey",
   "s"
  ],
  [
   " c",
   "ere"
  ],
  [
   "ail",
   "able"
  ],
  [
   " vo",
   "lcano"
  ],
  [
   " tr",
   "uth"
  ],
  [
   ".",
   "."
  ],
  [
   "L",
   "ittle"
  ],
  [
   "ur",
   "b"
  ],
  [
   " W",
   "here"
  ],
  [
   " m",
   "ild"
  ],
  [
   " it",
   "self"
  ],
  [
   "ip",
   "s"
  ],
  [
   " climb",
   "ing"
  ],
  [
   "ac",
   "hes"
  ],
  [
   " pull",
   "s"
  ],
  [
   " un",
   "cle"
  ],
  [
   " band",
   "age"
  ],
  [
   " past",
   "a"
  ],
  [
   " boun",
   "ced"
  ],
  [
   " gigg",
   "le"
  ],
  [
   " la",
   "und"
  ],
  [
   " cou",
   "rage"
  ],
  [
   " umbre",
   "lla"
  ],
  [
   " dist",
   "urb"
  ],
  [
   "g",
   "s"
  ],
  [
   "s",
   "es"
  ],
  [
   "ic",
   "op"
  ],
  [
   " pr",
   "un"
  ],
  [
   "uck",
   "ed"
  ],
  [
   "f",
   "fe"
  ],
  [
   " o",
   "ak"
  ],
  [
   " soft",
   "ly"
  ],
  [
   " sail",
   "or"
  ],
  [
   " or",
   "der"
  ],
  [
   " neighb",
   "our"
  ],
  [
   " s",
   "ize"
  ],
  [
   " supp",
   "ort"
  ],
  [
   " pop",
   "ular"
  ],
  [
   " Wh",
   "iskers"
  ],
  [
   " av",
   "ailable"
  ],
  [
   " hel",
   "icop"
  ],
  [
   "ffe",
   "e"
  ],
  [
   " helicop",
   "ter"
  ],
  [
   " a",
   "w"
  ],
  [
   " not",
   "e"
  ],
  [
   "se",
   "um"
  ],
  [
   " sh",
   "ade"
  ],
  [
   " d",
   "ust"
  ],
  [
   " d",
   "ive"
  ],
  [
   " need",
   "le"
  ],
  [
   " cr",
   "ane"
  ],
  [
   " lion",
   "s"
  ],
  [
   " ch",
   "ance"
  ],
  [
   "gg",
   "y"
  ],
  [
   " treasure",
   "s"
  ],
  [
   " pe",
   "ek"
  ],
  [
   " ch",
   "u"
  ],
  [
   " sc",
   "old"
  ],
  [
   " libr",
   "ary"
  ],
  [
   " re",
   "ef"
  ],
  [
   " laund",
   "ry"
  ],
  [
   " chu",
   "bby"
  ],
  [
   " t",
   "en"
  ],
  [
   " in",
   "s"
  ],
  [
   "ce",
   "ed"
  ],
  [
   " sh",
   "ut"
  ],
  [
   " all",
   "ig"
  ],
  [
   " ro",
   "ared"
  ],
  [
   " po",
   "le"
  ],
  [
   " en",
   "er"
  ],
  [
   " pu",
   "p"
  ],
  [
   "c",
   "ast"
  ],
  [
   "Ben",
   "ny"
  ],
  [
   " dis",
   "hes"
  ],
  [
   " Gra",
   "ce"
  ],
  [
   "y",
   "ear"
  ],
  [
   "oo",
   "ped"
  ],
  [
   " step",
   "s"
  ],
  [
   " scre",
   "w"
  ],
  [
   " T",
   "ony"
  ],
  [
   "B",
   "ye"
  ],
  [
   " competit",
   "ive"
  ],
  [
   " lollip",
   "op"
  ],
  [
   " ",
   "iron"
  ],
  [
   "t",
   "e"
  ],
  [
   "c",
   "i"
  ],
  [
   "I",
   "f"
  ],
  [
   "r",
   "on"
  ],
  [
   " p",
   "ad"
  ],
  [
   "am",
   "ent"
  ],
  [
   "h",
   "ood"
  ],
  [
   " r",
   "ag"
  ],
  [
   " st",
   "ared"
  ],
  [
   "i",
   "bb"
  ],
  [
   " te",
   "ar"
  ],
  [
   " app",
   "l"
  ],
  [
   "um",
   "mer"
  ],
  [
   " K",
   "ate"
  ],
  [
   " cup",
   "s"
  ],
  [
   " E",
   "ventually"
  ],
  [
   " w",
   "ife"
  ],
  [
   " spin",
   "ning"
  ],
  [
   "st",
   "airs"
  ],
  [
   " rid",
   "ing"
  ],
  [
   " frown",
   "ed"
  ],
  [
   " Brown",
   "ie"
  ],
  [
   " resc",
   "ue"
  ],
  [
   " Snow",
   "y"
  ],
  [
   " toil",
   "et"
  ],
  [
   " mu",
   "seum"
  ],
  [
   "er",
   "c"
  ],
  [
   "it",
   "es"
  ],
  [
   " s",
   "ent"
  ],
  [
   "ill",
   "s"
  ],
  [
   " can",
   "e"
  ],
  [
   " d",
   "ess"
  ],
  [
   " hand",
   "ed"
  ],
  [
   "uc",
   "t"
  ],
  [
   " c",
   "urt"
  ],
  [
   " ho",
   "les"
  ],
  [
   " jo",
   "kes"
  ],
  [
   "z",
   "zy"
  ],
  [
   " adm",
   "ire"
  ],
  [
   " bark",
   "s"
  ],
  [
   " spe",
   "ak"
  ],
  [
   " stuff",
   "ed"
  ],
  [
   "Jen",
   "ny"
  ],
  [
   " h",
   "oop"
  ],
  [
   " Mar",
   "ia"
  ],
  [
   " e",
   "ither"
  ],
  [
   " sand",
   "cast"
  ],
  [
   " curt",
   "ain"
  ],
  [
   " b",
   "et"
  ],
  [
   " for",
   "t"
  ],
  [
   " k",
   "ay"
  ],
  [
   " sp",
   "ir"
  ],
  [
   " find",
   "s"
  ],
  [
   " ta",
   "p"
  ],
  [
   " p",
   "ine"
  ],
  [
   " w",
   "ool"
  ],
  [
   " now",
   "here"
  ],
  [
   " a",
   "nts"
  ],
  [
   " poin",
   "t"
  ],
  [
   " count",
   "ry"
  ],
  [
   " di",
   "ary"
  ],
  [
   " p",
   "ony"
  ],
  [
   " de",
   "af"
  ],
  [
   " gra",
   "pes"
  ],
  [
   " G",
   "eorge"
  ],
  [
   " rep",
   "air"
  ],
  [
   " R",
   "osie"
  ],
  [
   " co",
   "ffee"
  ],
  [
   "g",
   "en"
  ],
  [
   " sa",
   "us"
  ],
  [
   " f",
   "urt"
  ],
  [
   "sel",
   "y"
  ],
  [
   " app",
   "re"
  ],
  [
   " stick",
   "er"
  ],
  [
   " vis",
   "ited"
  ],
  [
   " str",
   "ugg"
  ],
  [
   "c",
   "col"
  ],
  [
   " sal",
   "t"
  ],
  [
   " rad",
   "io"
  ],
  [
   " suc",
   "ceed"
  ],
  [
   " dess",
   "ert"
  ],
  [
   "ccol",
   "i"
  ],
  [
   " in",
   "k"
  ],
  [
   "an",
   "ic"
  ],
  [
   " W",
   "ould"
  ],
  [
   " or",
   "n"
  ],
  [
   " we",
   "ather"
  ],
  [
   " pol",
   "ish"
  ],
  [
   " cup",
   "board"
  ],
  [
   "Gra",
   "ndma"
  ],
  [
   " allig",
   "ator"
  ],
  [
   " ex",
   "erc"
  ],
  [
   " appre",
   "ci"
  ],
  [
   " orn",
   "ament"
  ],
  [
   " c",
   "omet"
  ],
  [
   " com",
   "pl"
  ],
  [
   " And",
   "y"
  ],
  [
   " R",
   "o"
  ],
  [
   " ru",
   "bb"
  ],
  [
   " tri",
   "pped"
  ],
  [
   " pus",
   "hes"
  ],
  [
   " sl",
   "ipp"
  ],
  [
   " che",
   "ek"
  ],
  [
   " happ",
   "ier"
  ],
  [
   " jour",
   "n"
  ],
  [
   "ke",
   "let"
  ],
  [
   " colour",
   "s"
  ],
  [
   " chick",
   "ens"
  ],
  [
   " E",
   "llie"
  ],
  [
   " furt",
   "her"
  ],
  [
   " me",
   "ch"
  ],
  [
   " mech",
   "anic"
  ],
  [
   " S",
   "h"
  ],
  [
   " re",
   "ve"
  ],
  [
   "n",
   "ight"
  ],
  [
   "in",
   "king"
  ],
  [
   " sp",
   "ell"
  ],
  [
   " d",
   "ough"
  ],
  [
   " cu",
   "be"
  ],
  [
   " fr",
   "ame"
  ],
  [
   "or",
   "able"
  ],
  [
   " dis",
   "ag"
  ],
  [
   " hop",
   "ing"
  ],
  [
   " break",
   "s"
  ],
  [
   " thre",
   "ad"
  ],
  [
   " mix",
   "er"
  ],
  [
   " che",
   "cked"
  ],
  [
   " sh",
   "adow"
  ],
  [
   " grab",
   "s"
  ],
  [
   " stret",
   "ch"
  ],
  [
   " lemon",
   "ade"
  ],
  [
   " back",
   "pack"
  ],
  [
   " pow",
   "der"
  ],
  [
   "B",
   "ecause"
  ],
  [
   " hair",
   "cut"
  ],
  [
   " cere",
   "al"
  ],
  [
   " spir",
   "it"
  ],
  [
   " clo",
   "sely"
  ],
  [
   "s",
   "er"
  ],
  [
   " o",
   "l"
  ],
  [
   " p",
   "un"
  ],
  [
   " we",
   "ep"
  ],
  [
   "pl",
   "ay"
  ],
  [
   " frog",
   "s"
  ],
  [
   " ho",
   "ck"
  ],
  [
   " bo",
   "ots"
  ],
  [
   " complet",
   "e"
  ],
  [
   " to",
   "rn"
  ],
  [
   " journ",
   "al"
  ],
  [
   " hock",
   "ey"
  ],
  [
   " m",
   "en"
  ],
  [
   "st",
   "ic"
  ],
  [
   " le",
   "ar"
  ],
  [
   " me",
   "at"
  ],
  [
   " Every",
   "thing"
  ],
  [
   "e",
   "ath"
  ],
  [
   " some",
   "where"
  ],
  [
   " gi",
   "ven"
  ],
  [
   " sw",
   "amp"
  ],
  [
   " l",
   "ang"
  ],
  [
   " paw",
   "s"
  ],
  [
   " z",
   "eb"
  ],
  [
   " fil",
   "thy"
  ],
  [
   " air",
   "port"
  ],
  [
   " cl",
   "apping"
  ],
  [
   " ins",
   "ist"
  ],
  [
   " s",
   "ummer"
  ],
  [
   " bro",
   "ccoli"
  ],
  [
   " s",
   "kelet"
  ],
  [
   " ad",
   "orable"
  ],
  [
   " lear",
   "nt"
  ],
  [
   " lang",
   "u"
  ],
  [
   " zeb",
   "ra"
  ]
 ],
 "merge_counts": [
  579330,
  547193,
  431161,
  316477,
  277943,
  262544,
  247561,
  213356,
  185071,
  173191,
  168636,
  165294,
  156609,
  144505,
  143503,
  139928,
  139883,
  136827,
  113943,
  113546,
  109590,
  107574,
  107290,
  101989,
  101426,
  98680,
  95734,
  95198,
  90375,
  89357,
  84175,
  84128,
  82644,
  82374,
  79182,
  77669,
  73449,
  70665,
  69818,
  69137,
  67296,
  66436,
  65829,
  63873,
  63694,
  59419,
  57092,
  56434,
  55389,
  54637,
  52304,
  50653,
  49642,
  48582,
  47940,
  47428,
  46909,
  44500,
  44368,
  42913,
  42016,
  41860,
  41844,
  40192,
  40124,
  38357,
  38329,
  38310,
  38052,
  37774,
  37334,
  37143,
  36420,
  36414,
  35623,
  35412,
  35248,
  34591,
  34394,
  34348,
  33930,
  33908,
  33642,
  33628,
  33354,
  33334,
  33175,
  32330,
  31319,
  31248,
  31150,
  30864,
  30493,
  30235,
  30080,
  29473,
  29301,
  28937,
  28795,
  28716,
  27631,
  26530,
  26097,
  25832,
  24801,
  24745,
  24706,
  24644,
  24363,
  23963,
  23635,
  23461,
  23388,
  23260,
  22926,
  22667,
  22013,
  21832,
  21807,
  21783,
  21594,
  21462,
  21252,
  21010,
  20699,
  20661,
  20068,
  19866,
  19558,
  19538,
  19528,
  19490,
  19486,
  19407,
  19360,
  19330,
  19132,
  18997,
  18983,
  18876,
  18824,
  18777,
  18512,
  18433,
  18411,
  18404,
  18237,
  18119,
  18038,
  17981,
  17790,
  17657,
  17598,
  17409,
  17384,
  17340,
  17227,
  17148,
  17117,
  16768,
  16670,
  16544,
  16529,
  15954,
  15845,
  15796,
  15697,
  15545,
  15474,
  15427,
  15424,
  15269,
  15268,
  15057,
  15029,
  14714,
  14678,
  14259,
  14203,
  14154,
  13656,
  13575,
  13565,
  13402,
  13386,
  13383,
  13359,
  13293,
  13236,
  13109,
  13066,
  12793,
  12678,
  12660,
  12538,
  12503,
  12497,
  12474,
  12336,
  12287,
  12224,
  12152,
  12125,
  12089,
  11683,
  11663,
  11385,
  11378,
  11224,
  11216,
  11166,
  11098,
  11088,
  11051,
  11048,
  11020,
  10947,
  10882,
  10840,
  10739,
  10661,
  10659,
  10640,
  10541,
  10454,
  10386,
  10238,
  10091,
  10053,
  9985,
  9985,
  9980,
  9923,
  9793,
  9767,
  9752,
  9723,
  9579,
  9522,
  9424,
  9408,
  9309,
  9308,
  9303,
  9294,
  9190,
  9099,
  9065,
  9024,
  8990,
  8927,
  8907,
  8856,
  8800,
  8770,
  8731,
  8704,
  8641,
  8630,
  8628,
  8531,
  8508,
  8487,
  8441,
  8406,
  8392,
  8365,
  8345,
  8268,
  8244,
  8160,
  8109,
  8075,
  8037,
  8030,
  7916,
  7913,
  7668,
  7665,
  7609,
  7603,
  7602,
  7573,
  7566,
  7552,
  7541,
  7467,
  7408,
  7406,
  7345,
  7334,
  7299,
  7294,
  7221,
  7212,
  7209,
  7071,
  7038,
  7016,
  6975,
  6961,
  6952,
  6942,
  6935,
  6899,
  6818,
  6801,
  6733,
  6722,
  6692,
  6676,
  6644,
  6634,
  6537,
  6536,
  6525,
  6488,
  6472,
  6470,
  6403,
  6390,
  6374,
  6368,
  6354,
  6345,
  6336,
  6299,
  6282,
  6271,
  6244,
  6217,
  6174,
  6150,
  6135,
  6132,
  6099,
  6090,
  6084,
  6071,
  6068,
  6031,
  6012,
  5997,
  5951,
  5921,
  5917,
  5898,
  5726,
  5702,
  5688,
  5679,
  5675,
  5670,
  5623,
  5619,
  5577,
  5515,
  5509,
  5480,
  5474,
  5465,
  5449,
  5429,
  5421,
  5396,
  5393,
  5348,
  5297,
  5291,
  5267,
  5248,
  5243,
  5219,
  5211,
  5128,
  5120,
  5118,
  5107,
  5097,
  5097,
  5079,
  5050,
  5025,
  4985,
  4966,
  4959,
  4953,
  4944,
  4939,
  4938,
  4931,
  4897,
  4886,
  4880,
  4873,
  4871,
  4871,
  4854,
  4853,
  4834,
  4820,
  4809,
  4806,
  4803,
  4790,
  4789,
  4783,
  4781,
  4756,
  4737,
  4727,
  4715,
  4692,
  4670,
  4664,
  4663,
  4640,
  4633,
  4610,
  4608,
  4489,
  4477,
  4467,
  4461,
  4456,
  4445,
  4438,
  4434,
  4434,
  4431,
  4425,
  4404,
  4383,
  4346,
  4310,
  4304,
  4289,
  4210,
  4209,
  4194,
  4158,
  4142,
  4138,
  4138,
  4129,
  4121,
  4117,
  4097,
  4088,
  4056,
  4054,
  4046,
  3977,
  3977,
  3945,
  3932,
  3923,
  3874,
  3873,
  3861,
  3848,
  3847,
  3836,
  3835,
  3822,
  3797,
  3797,
  3785,
  3758,
  3749,
  3745,
  3742,
  3727,
  3724,
  3706,
  3674,
  3672,
  3668,
  3651,
  3647,
  3642,
  3637,
  3630,
  3611,
  3601,
  3595,
  3585,
  3577,
  3565,
  3561,
  3549,
  3548,
  3537,
  3508,
  3487,
  3486,
  3482,
  3477,
  3476,
  3460,
  3456,
  3447,
  3427,
  3425,
  3422,
  3420,
  3419,
  3419,
  3410,
  3397,
  3378,
  3375,
  3374,
  3373,
  3362,
  3354,
  3351,
  3341,
  3332,
  3327,
  3326,
  3326,
  3322,
  3297,
  3281,
  3268,
  3268,
  3264,
  3247,
  3241,
  3238,
  3221,
  3216,
  3195,
  3180,
  3178,
  3178,
  3169,
  3162,
  3157,
  3149,
  3112,
  3084,
  3084,
  3082,
  3078,
  3075,
  3067,
  3064,
  3046,
  3028,
  3028,
  3028,
  3012,
  3008,
  2967,
  2960,
  2953,
  2947,
  2946,
  2930,
  2923,
  2910,
  2908,
  2891,
  2878,
  2876,
  2875,
  2873,
  2870,
  2865,
  2861,
  2855,
  2853,
  2840,
  2833,
  2832,
  2830,
  2827,
  2823,
  2819,
  2817,
  2803,
  2802,
  2796,
  2783,
  2770,
  2768,
  2761,
  2757,
  2756,
  2749,
  2742,
  2741,
  2735,
  2727,
  2722,
  2702,
  2700,
  2700,
  2699,
  2699,
  2687,
  2683,
  2673,
  2668,
  2663,
  2660,
  2644,
  2638,
  2625,
  2623,
  2615,
  2611,
  2610,
  2609,
  2603,
  2592,
  2582,
  2571,
  2566,
  2550,
  2550,
  2542,
  2537,
  2535,
  2528,
  2513,
  2511,
  2501,
  2497,
  2492,
  2488,
  2488,
  2486,
  2474,
  2465,
  2463,
  2462,
  2458,
  2454,
  2453,
  2428,
  2424,
  2424,
  2397,
  2397,
  2385,
  2384,
  2380,
  2378,
  2370,
  2363,
  2361,
  2343,
  2338,
  2337,
  2331,
  2331,
  2330,
  2324,
  2322,
  2315,
  2310,
  2301,
  2295,
  2293,
  2292,
  2288,
  2283,
  2281,
  2274,
  2269,
  2267,
  2258,
  2256,
  2250,
  2244,
  2236,
  2226,
  2225,
  2219,
  2219,
  2217,
  2212,
  2212,
  2208,
  2198,
  2198,
  2191,
  2185,
  2181,
  2179,
  2173,
  2161,
  2154,
  2154,
  2152,
  2150,
  2129,
  2127,
  2126,
  2121,
  2115,
  2114,
  2110,
  2107,
  2103,
  2096,
  2092,
  2092,
  2089,
  2086,
  2086,
  2085,
  2067,
  2057,
  2057,
  2048,
  2045,
  2044,
  2042,
  2039,
  2036,
  2028,
  2028,
  2028,
  2027,
  2010,
  2009,
  2008,
  2006,
  2004,
  2001,
  1996,
  1986,
  1984,
  1979,
  1974,
  1970,
  1970,
  1960,
  1955,
  1955,
  1954,
  1948,
  1945,
  1938,
  1935,
  1934,
  1933,
  1924,
  1920,
  1920,
  1911,
  1903,
  1892,
  1885,
  1868,
  1856,
  1855,
  1855,
  1853,
  1852,
  1851,
  1850,
  1848,
  1836,
  1830,
  1824,
  1821,
  1818,
  1817,
  1817,
  1816,
  1815,
  1811,
  1804,
  1801,
  1796,
  1790,
  1787,
  1786,
  1784,
  1784,
  1783,
  1780,
  1778,
  1778,
  1776,
  1775,
  1761,
  1760,
  1752,
  1751,
  1746,
  1746,
  1742,
  1741,
  1738,
  1726,
  1724,
  1721,
  1719,
  1718,
  1715,
  1714,
  1710,
  1709,
  1708,
  1707,
  1707,
  1706,
  1706,
  1703,
  1700,
  1697,
  1695,
  1693,
  1688,
  1684,
  1684,
  1683,
  1678,
  1677,
  1675,
  1673,
  1671,
  1671,
  1670,
  1670,
  1663,
  1662,
  1661,
  1653,
  1651,
  1649,
  1649,
  1646,
  1639,
  1636,
  1636,
  1628,
  1627,
  1626,
  1625,
  1613,
  1610,
  1610,
  1609,
  1607,
  1607,
  1606,
  1604,
  1601,
  1599,
  1599,
  1595,
  1591,
  1586,
  1585,
  1581,
  1579,
  1574,
  1573,
  1573,
  1569,
  1569,
  1563,
  1563,
  1560,
  1558,
  1557,
  1555,
  1544,
  1543,
  1540,
  1540,
  1535,
  1534,
  1534,
  1531,
  1526,
  1526,
  1518,
  1517,
  1516,
  1515,
  1515,
  1511,
  1510,
  1507,
  1506,
  1503,
  1501,
  1501,
  1501,
  1500,
  1500,
  1499,
  1499,
  1498,
  1495,
  1495,
  1483,
  1483,
  1482,
  1475,
  1475,
  1472,
  1471,
  1466,
  1460,
  1459,
  1458,
  1454,
  1452,
  1445,
  1444,
  1438,
  1437,
  1436,
  1433,
  1430,
  1425,
  1424,
  1423,
  1422,
  1421,
  1412,
  1412,
  1405,
  1403,
  1401,
  1399,
  1396,
  1395,
  1393,
  1392,
  1389,
  1384,
  1384,
  1383,
  1382,
  1381,
  1378,
  1378,
  1371,
  1369,
  1367,
  1366,
  1362,
  1362,
  1361,
  1346,
  1345,
  1344,
  1343,
  1342,
  1340,
  1340,
  1337,
  1336,
  1335,
  1335,
  1334,
  1329,
  1328,
  1328,
  1326,
  1325,
  1321,
  1318,
  1317,
  1316,
  1312,
  1308,
  1305,
  1301,
  1299,
  1297,
  1297,
  1296,
  1292,
  1292,
  1290,
  1286,
  1285,
  1284,
  1278,
  1278,
  1276,
  1275,
  1270,
  1270,
  1265,
  1264,
  1263,
  1261,
  1261,
  1259,
  1258,
  1256,
  1255,
  1253,
  1247,
  1245,
  1245,
  1242,
  1239,
  1239,
  1237,
  1235,
  1232,
  1230,
  1228,
  1227,
  1225,
  1222,
  1221,
  1221,
  1220,
  1217,
  1216,
  1214,
  1213,
  1213,
  1213,
  1213,
  1210,
  1204,
  1204,
  1203,
  1200,
  1199,
  1199,
  1199,
  1199,
  1191,
  1189,
  1189,
  1188,
  1184,
  1184,
  1180,
  1180,
  1179,
  1179,
  1175,
  1175,
  1175,
  1175,
  1172,
  1172,
  1172,
  1169,
  1169,
  1169,
  1169,
  1167,
  1166,
  1161,
  1160,
  1157,
  1157,
  1153,
  1153,
  1153,
  1150,
  1149,
  1146,
  1145,
  1144,
  1144,
  1140,
  1136,
  1133,
  1128,
  1127,
  1127,
  1125,
  1123,
  1118,
  1117,
  1117,
  1117,
  1116,
  1115,
  1115,
  1112,
  1112,
  1111,
  1110,
  1109,
  1106,
  1105,
  1105,
  1103,
  1101,
  1101,
  1101,
  1101,
  1099,
  1099,
  1098,
  1098,
  1097,
  1091,
  1091,
  1088,
  1088,
  1086,
  1085,
  1084,
  1084,
  1083,
  1083,
  1082,
  1080,
  1078,
  1075,
  1075,
  1072,
  1070,
  1066,
  1063,
  1062,
  1062,
  1059,
  1056,
  1055,
  1055,
  1051,
  1050,
  1049,
  1049,
  1048,
  1048,
  1046,
  1044,
  1044,
  1043,
  1042,
  1041,
  1041,
  1039,
  1039,
  1038,
  1037,
  1035,
  1033,
  1033,
  1031,
  1029,
  1029,
  1028,
  1028,
  1026,
  1026,
  1024,
  1023,
  1019,
  1017,
  1015,
  1013,
  1011,
  1009,
  1009,
  1007,
  1007,
  1006,
  1006,
  1005,
  1003,
  1002,
  1000,
  999,
  997,
  991,
  991,
  989,
  989,
  989,
  985,
  984,
  978,
  977,
  977,
  976,
  976,
  973,
  972,
  966,
  964,
  961,
  960,
  958,
  957,
  957,
  952,
  951,
  951,
  946,
  944,
  944,
  941,
  938,
  938,
  937,
  937,
  937,
  935,
  934,
  933,
  931,
  930,
  930,
  929,
  927,
  927,
  926,
  922,
  922,
  920,
  918,
  917,
  916,
  913,
  911,
  911,
  909,
  908,
  908,
  904,
  903,
  902,
  900,
  899,
  897,
  897,
  897,
  896,
  896,
  895,
  894,
  894,
  893,
  893,
  891,
  891,
  890,
  889,
  889,
  888,
  887,
  885,
  883,
  882,
  880,
  879,
  878,
  877,
  877,
  875,
  872,
  870,
  870,
  869,
  868,
  867,
  866,
  864,
  862,
  859,
  859,
  859,
  858,
  858,
  858,
  856,
  855,
  855,
  849,
  848,
  848,
  846,
  843,
  843,
  842,
  842,
  842,
  841,
  839,
  838,
  837,
  837,
  835,
  835,
  835,
  832,
  832,
  831,
  829,
  829,
  827,
  826,
  826,
  825,
  824,
  824,
  822,
  821,
  821,
  820,
  819,
  819,
  819,
  818,
  812,
  812,
  811,
  810,
  809,
  807,
  807,
  807,
  806,
  802,
  801,
  798,
  798,
  797,
  797,
  795,
  793,
  792,
  792,
  792,
  792,
  792,
  792,
  790,
  788,
  787,
  783,
  783,
  781,
  781,
  779,
  778,
  778,
  778,
  778,
  776,
  776,
  774,
  774,
  773,
  772,
  772,
  771,
  771,
  770,
  767,
  766,
  765,
  764,
  762,
  761,
  761,
  760,
  759,
  757,
  755,
  754,
  752,
  751,
  749,
  747,
  744,
  743,
  743,
  742,
  738,
  738,
  736,
  735,
  732,
  732,
  731,
  731,
  729,
  728,
  726,
  726,
  725,
  724,
  724,
  724,
  724,
  722,
  721,
  719,
  719,
  719,
  719,
  716,
  716,
  715,
  714,
  714,
  714,
  712,
  712,
  712,
  711,
  711,
  708,
  707,
  707,
  706,
  705,
  704,
  704,
  700,
  700,
  699,
  699,
  699,
  699,
  698,
  697,
  697,
  697,
  696,
  695,
  693,
  693,
  691,
  690,
  687,
  685,
  684,
  684,
  684,
  684,
  683,
  682,
  681,
  680,
  680,
  679,
  678,
  676,
  675,
  675,
  675,
  675,
  674,
  674,
  674,
  673,
  673,
  669,
  668,
  668,
  667,
  666,
  666,
  665,
  665,
  664,
  661,
  661,
  661,
  660,
  660,
  659,
  659,
  658,
  658,
  657,
  656,
  656,
  655,
  655,
  654,
  654,
  654,
  652,
  650,
  650,
  649,
  649,
  646,
  646,
  645,
  644,
  643,
  640,
  638,
  637,
  636,
  636,
  635,
  634,
  634,
  634,
  634,
  632,
  631,
  631,
  629,
  628,
  628,
  627,
  626,
  625,
  624,
  624,
  623,
  623,
  622,
  621,
  620,
  619,
  619,
  618,
  618,
  617,
  617,
  616,
  616,
  615,
  614,
  614,
  611,
  611,
  610,
  608,
  607,
  606,
  605,
  605,
  605,
  604,
  603,
  602,
  602,
  600,
  600,
  598,
  598,
  598,
  597,
  597,
  596,
  595,
  590,
  590,
  590,
  589,
  588,
  588,
  587,
  587,
  585,
  582,
  582,
  582,
  580,
  580,
  578,
  578,
  578,
  577,
  576,
  576,
  575,
  573,
  573,
  573,
  572,
  572,
  572,
  571,
  570,
  569,
  569,
  569,
  568,
  566,
  566,
  566,
  566,
  565,
  564,
  564,
  563,
  562,
  562,
  560,
  560,
  559,
  557,
  556,
  555,
  555,
  555,
  555,
  554,
  553,
  552,
  551,
  550,
  550,
  549,
  549,
  549,
  548,
  548,
  547,
  547,
  547,
  546,
  546,
  546,
  546,
  546,
  545,
  545,
  545,
  545,
  545,
  544,
  544,
  544,
  543,
  543,
  542,
  542,
  540,
  540,
  539,
  539,
  539,
  538,
  538,
  538,
  538,
  537,
  537,
  536,
  534,
  533,
  533,
  532,
  531,
  531,
  531,
  529,
  528,
  528,
  526,
  526,
  526,
  525,
  524,
  524,
  523,
  522,
  522,
  522,
  522,
  521,
  520,
  519,
  519,
  519,
  518,
  517,
  517,
  517,
  516,
  515,
  515,
  515,
  514,
  514,
  514,
  513,
  512,
  512,
  511,
  510,
  510,
  509,
  509,
  509,
  508,
  508,
  508,
  508,
  508,
  508,
  508,
  507,
  507,
  506,
  506,
  506,
  505,
  503,
  502,
  501,
  500,
  499,
  497,
  497,
  497,
  497,
  497,
  497,
  496,
  495,
  495,
  494,
  494,
  494,
  493,
  493,
  493,
  492,
  492,
  491,
  491,
  491,
  488,
  488,
  487,
  487,
  487,
  486,
  485,
  485,
  482,
  482,
  482,
  481,
  481,
  479,
  478,
  478,
  478,
  478,
  477,
  477,
  475,
  475,
  474,
  472,
  472,
  472,
  471,
  471,
  470,
  469,
  469,
  469,
  468,
  468,
  467,
  467,
  467,
  466,
  466,
  466,
  466,
  466,
  464,
  464,
  464,
  464,
  464,
  464,
  462,
  462,
  459,
  458,
  458,
  457,
  457,
  457,
  455,
  455,
  455,
  454,
  454,
  454,
  453,
  452,
  452,
  452,
  450,
  450,
  450,
  450,
  448,
  446,
  446,
  445,
  445,
  444,
  444,
  444,
  444,
  443,
  443,
  442,
  442,
  441,
  441,
  441,
  440,
  440,
  440,
  439,
  438,
  438,
  438,
  437,
  437,
  437,
  436,
  436,
  436,
  435,
  434,
  434,
  433,
  432,
  432,
  432,
  431,
  431,
  431,
  431,
  430,
  430,
  429,
  429,
  429,
  428,
  427,
  427,
  427,
  426,
  426,
  426,
  425,
  425,
  424,
  423,
  423,
  423,
  422,
  422,
  422,
  421,
  421,
  421,
  421,
  421,
  421,
  420,
  418,
  418,
  417,
  417,
  417,
  416,
  416,
  416,
  416,
  416,
  415,
  415,
  415,
  414,
  413,
  413,
  413,
  412,
  412,
  412,
  411,
  411,
  410,
  410,
  410,
  410,
  410,
  409,
  409,
  409,
  407,
  407,
  406,
  405,
  405,
  404,
  403,
  403,
  403,
  402,
  402,
  402,
  402,
  402,
  401,
  401,
  401,
  401,
  399,
  399,
  399,
  399,
  399,
  398,
  396,
  396,
  396,
  396,
  395,
  395,
  394,
  394,
  393,
  392,
  392,
  392,
  392,
  390,
  390,
  390,
  390,
  389,
  389,
  389,
  389,
  389,
  389,
  389,
  389,
  388,
  387,
  386,
  386,
  385,
  385,
  385,
  385,
  384,
  384,
  383,
  383,
  383,
  383,
  383,
  382,
  381,
  381,
  381,
  380,
  380,
  379,
  378,
  377,
  376,
  376,
  376,
  375,
  375,
  375,
  373,
  373,
  372,
  372,
  372,
  372,
  371,
  371,
  370,
  370,
  370,
  369,
  369,
  369,
  369,
  368,
  368,
  367,
  366,
  366,
  365,
  365,
  365,
  365,
  365,
  364,
  364,
  363,
  363,
  363,
  363,
  362,
  362,
  362,
  361,
  361,
  361,
  361,
  361,
  361,
  361,
  360,
  360,
  359,
  359,
  359,
  358,
  358,
  358,
  357,
  357,
  356,
  356,
  356,
  356,
  355,
  355,
  355,
  355,
  354,
  354,
  354,
  354,
  353,
  353,
  353,
  353,
  353,
  353,
  352,
  352,
  352,
  352,
  352,
  350,
  350,
  350,
  350,
  350,
  349,
  349,
  349,
  349,
  349,
  348,
  348,
  348,
  347,
  347,
  347,
  347,
  347,
  346,
  346,
  346,
  345,
  345,
  345,
  345,
  344,
  343,
  343,
  343,
  342,
  342,
  341,
  341,
  341,
  340,
  340,
  340,
  340,
  340,
  340,
  340,
  339,
  338,
  338,
  338,
  338,
  337,
  337,
  337,
  337,
  337,
  336,
  336,
  335,
  335,
  335,
  335,
  335,
  334,
  334,
  334,
  334,
  333,
  333,
  333,
  332,
  332,
  332,
  332,
  331,
  331,
  331,
  330,
  329,
  329,
  328,
  327,
  327,
  326,
  325,
  325,
  325,
  325,
  325,
  325,
  325,
  324,
  324,
  324,
  323,
  323,
  323,
  321,
  321,
  320,
  320,
  320,
  320,
  319,
  319,
  319,
  319,
  319,
  319,
  318,
  318,
  318,
  318,
  318,
  317,
  317,
  316,
  316,
  316,
  315,
  315,
  315,
  315,
  314,
  314,
  314,
  314,
  314,
  313,
  313,
  313,
  313,
  312,
  312,
  312,
  311,
  311,
  311,
  311,
  309,
  309,
  309,
  309,
  309,
  308,
  307,
  307,
  307,
  307,
  306,
  306,
  306,
  306,
  306,
  306,
  306,
  305,
  305,
  305,
  305,
  305,
  305,
  305,
  304,
  304,
  304,
  304,
  303,
  303,
  303,
  303,
  303,
  302,
  302,
  302,
  301,
  301,
  301,
  301,
  301,
  300,
  300,
  300,
  300,
  300,
  300,
  299,
  299,
  299,
  299,
  298,
  298,
  298,
  297,
  297,
  296,
  296,
  296,
  295,
  295,
  295,
  295,
  294,
  294,
  294,
  294,
  294,
  294,
  293,
  293,
  293,
  293,
  293,
  293,
  293,
  293,
  292,
  292,
  292,
  292,
  292,
  291,
  291,
  291,
  291,
  291,
  290,
  290,
  289,
  289,
  289,
  288,
  288,
  288,
  288,
  288,
  288,
  287,
  287,
  287,
  287,
  286,
  286,
  286,
  285,
  285,
  284,
  284,
  284,
  284,
  284,
  283,
  283,
  282,
  282,
  282,
  282,
  281,
  281,
  281,
  281,
  281,
  281,
  281,
  280,
  280,
  280,
  279,
  279,
  279,
  279,
  279,
  278,
  278,
  278,
  277,
  277,
  277,
  277,
  277,
  276,
  276,
  276,
  276,
  275,
  275,
  274,
  274,
  274,
  274,
  274,
  273,
  272,
  272,
  272,
  272,
  271,
  271,
  271,
  271,
  271,
  270,
  270,
  270,
  269,
  269,
  269,
  269,
  269,
  268,
  268,
  268,
  268,
  268,
  267,
  267,
  267,
  267,
  267,
  267,
  267,
  267,
  266,
  266,
  266,
  266,
  266,
  266,
  265,
  265,
  265,
  265,
  265,
  265,
  265,
  265,
  264,
  264,
  264,
  264,
  264,
  264,
  264,
  264,
  263,
  263,
  263,
  263,
  262,
  262,
  261,
  261,
  261,
  261,
  260,
  259,
  259,
  259,
  259,
  259,
  259,
  259,
  259,
  258,
  258,
  258,
  257,
  257,
  257,
  257,
  257,
  257,
  257,
  256,
  256,
  256,
  256,
  256,
  256,
  255,
  255,
  255,
  255,
  254,
  254,
  254,
  254,
  254,
  253,
  253,
  253,
  253,
  253,
  253,
  253,
  253,
  252,
  252,
  252,
  252,
  252,
  251,
  250,
  250,
  250,
  250,
  250,
  249,
  249,
  248,
  248,
  248,
  248,
  248,
  248,
  248,
  247,
  247,
  247,
  246,
  246,
  246,
  246,
  246,
  246,
  245,
  245,
  245,
  245,
  244,
  244,
  243,
  243,
  243,
  243,
  243,
  243,
  243,
  243,
  243,
  242,
  242,
  242,
  242,
  242,
  242,
  242,
  241,
  241,
  241,
  241,
  241,
  241,
  241,
  240,
  240,
  240,
  239,
  239,
  239,
  239,
  239,
  239,
  239,
  238,
  238,
  238,
  237,
  237,
  237,
  237,
  237,
  237,
  237,
  237,
  236,
  236,
  236,
  236,
  236,
  236,
  236,
  236,
  235,
  235,
  235,
  235,
  235,
  235,
  234,
  234,
  234,
  234,
  234,
  234,
  233,
  233,
  233,
  233,
  232,
  232,
  231,
  231,
  231,
  231,
  231,
  231,
  231,
  231,
  231,
  231,
  230,
  230,
  230,
  230,
  230,
  230,
  230,
  230,
  230,
  229,
  229,
  229,
  229,
  229,
  229,
  229,
  228,
  228,
  228,
  228,
  228,
  228,
  228,
  228,
  227,
  227,
  227,
  227,
  226,
  226,
  226,
  226,
  226,
  226,
  226,
  226,
  225,
  225,
  225,
  225,
  225,
  225,
  225,
  225,
  225,
  224,
  224,
  224,
  224,
  224,
  224,
  224,
  223,
  223,
  223,
  222,
  222,
  222,
  222,
  222,
  221,
  221,
  221,
  221,
  221,
  221,
  221,
  221,
  221,
  221,
  221,
  220,
  220,
  220,
  220,
  220,
  220,
  220,
  220,
  220,
  220,
  219,
  219,
  219,
  218,
  218,
  218,
  218,
  218,
  218,
  218,
  217,
  217,
  217,
  217,
  216,
  216,
  215,
  215,
  215,
  215,
  215,
  214,
  214,
  214,
  214,
  214,
  214,
  213,
  213,
  213,
  213,
  213,
  213,
  213,
  212,
  212,
  212,
  212,
  212,
  212,
  211,
  211,
  211,
  211,
  211,
  210,
  210,
  210,
  210,
  210,
  210,
  210,
  210,
  210,
  210,
  210,
  209,
  209,
  209,
  209,
  209,
  209,
  209,
  209,
  209,
  209,
  208,
  208,
  208,
  208,
  207,
  207,
  207,
  207,
  207,
  207,
  207,
  207,
  207,
  207,
  207,
  207,
  207,
  207,
  207,
  207,
  207,
  206,
  206,
  206,
  206,
  206,
  206,
  206,
  205,
  205,
  205,
  205,
  204,
  204,
  204,
  204,
  204,
  204,
  204,
  204,
  204,
  204,
  204,
  204,
  204,
  204,
  204,
  204,
  204,
  204,
  204,
  203,
  203,
  203,
  203,
  203,
  203,
  203,
  203,
  203,
  203,
  203,
  203,
  203,
  203,
  202,
  202,
  202,
  202,
  202,
  202,
  202,
  201,
  201,
  201,
  201,
  201,
  201,
  201,
  201,
  201,
  201,
  201,
  200,
  200,
  200,
  200,
  200,
  200,
  200,
  200,
  200,
  199,
  199,
  199,
  199,
  199,
  198,
  198,
  198,
  198,
  198,
  198,
  197,
  197,
  197,
  197,
  197,
  197,
  197,
  197,
  197,
  196,
  196,
  196,
  196,
  196,
  196,
  196,
  196,
  196,
  195,
  195,
  195,
  195,
  195,
  195,
  195,
  195,
  195,
  195,
  195,
  195,
  195,
  194,
  194,
  194,
  194,
  194,
  194,
  194,
  193,
  193,
  193,
  193,
  193,
  192,
  192,
  192,
  192,
  192,
  192,
  192,
  192,
  191,
  191,
  191,
  191,
  191,
  191,
  191,
  191,
  191,
  191,
  191,
  191,
  190,
  190,
  190,
  190,
  190,
  190,
  190,
  190,
  190,
  190,
  190,
  190,
  190,
  189,
  189,
  189,
  189,
  189,
  189,
  188,
  188,
  188,
  188,
  188,
  188,
  187,
  187,
  187,
  187,
  187,
  187,
  187,
  187,
  187,
  187,
  187,
  187,
  187,
  186,
  186,
  186,
  186,
  186,
  186,
  186,
  186,
  186,
  185,
  185,
  185,
  185,
  185,
  185,
  185,
  184,
  184,
  184,
  184,
  184,
  184,
  183,
  183,
  183,
  183,
  183,
  182,
  182,
  182,
  182,
  182,
  182,
  182,
  181,
  181,
  181,
  181,
  181,
  181,
  181,
  181,
  181,
  181,
  180,
  180,
  180,
  180,
  180,
  180,
  180,
  180,
  180,
  180,
  180,
  180,
  180,
  179,
  179,
  179,
  179,
  179,
  179,
  179,
  179,
  179,
  178,
  178,
  178,
  178,
  178,
  178,
  178,
  178,
  178,
  178,
  178,
  178,
  178,
  178,
  178,
  177,
  177,
  177,
  177,
  177,
  177,
  177,
  177,
  177,
  177,
  177,
  177,
  176,
  176,
  176,
  176,
  176,
  176,
  176,
  176,
  176,
  176,
  176,
  176,
  176,
  176,
  175,
  175,
  175,
  175,
  175,
  175,
  175,
  175,
  175,
  175,
  175,
  175,
  175,
  175,
  175,
  175,
  175,
  174,
  174,
  174,
  174,
  174,
  174,
  174,
  174,
  174,
  174,
  174,
  174,
  174,
  174,
  173,
  173,
  173,
  173,
  173,
  173,
  173,
  173,
  173,
  173,
  173,
  173,
  172,
  172,
  172,
  172,
  172,
  172,
  172,
  172,
  172,
  172,
  172,
  172,
  172,
  172,
  172,
  172,
  171,
  171,
  171,
  171,
  171,
  171,
  171,
  171,
  171,
  171,
  170,
  170,
  170,
  170,
  170,
  170,
  170,
  170,
  170,
  170,
  170,
  170,
  170,
  170,
  169,
  169,
  169,
  169,
  169,
  169,
  169,
  169,
  169,
  168,
  168,
  168,
  168,
  168,
  168,
  168,
  168,
  168,
  168,
  168,
  167,
  167,
  167,
  167,
  167,
  167,
  167,
  167,
  167,
  167,
  167,
  167,
  166,
  166,
  166,
  166,
  166,
  166,
  166,
  166,
  166,
  166,
  166,
  165,
  165,
  165,
  165,
  165,
  165,
  165,
  165,
  165,
  165,
  165,
  165,
  164,
  164,
  164,
  164,
  164,
  163,
  163,
  163,
  163,
  163,
  163,
  163,
  163,
  163,
  163,
  163,
  162,
  162,
  162,
  162,
  162,
  162,
  162,
  162,
  162,
  162,
  162,
  162,
  161,
  161,
  161,
  161,
  161,
  161,
  161,
  161,
  161,
  161,
  161,
  161,
  161,
  160,
  160,
  160,
  160,
  160,
  160,
  160,
  160,
  160,
  160,
  160,
  160,
  160,
  159,
  159,
  159,
  159,
  159,
  159,
  159,
  159,
  159,
  159,
  159,
  159,
  158,
  158,
  158,
  158,
  158,
  158,
  158,
  157,
  157,
  157,
  157,
  157,
  157,
  157,
  157,
  157,
  157,
  157,
  157,
  157,
  157,
  157,
  156,
  156,
  156,
  156,
  156,
  156,
  156,
  156,
  156,
  156,
  156,
  156,
  156,
  156,
  156,
  156,
  156,
  156,
  156,
  156,
  156,
  156,
  156,
  155,
  155,
  155,
  155,
  155,
  155,
  155,
  155,
  154,
  154,
  154,
  154,
  154,
  154,
  154,
  154,
  154,
  154,
  154,
  154,
  154,
  154,
  154,
  154,
  154,
  154,
  154,
  154,
  153,
  153,
  153,
  153,
  153,
  153,
  153,
  153,
  153,
  153,
  153,
  153,
  153,
  153,
  153,
  153,
  153,
  153,
  153,
  152,
  152,
  152,
  152,
  152,
  152,
  152,
  152,
  152,
  152,
  151,
  151,
  151,
  151,
  151,
  151,
  151,
  151,
  151,
  151,
  151,
  151,
  151,
  151,
  151,
  150,
  150,
  150,
  150,
  150,
  150,
  150,
  150,
  149,
  149,
  149,
  149,
  149,
  149,
  149,
  149,
  149,
  149,
  149,
  149,
  148,
  148,
  148,
  148,
  148,
  148,
  148,
  148,
  148,
  148,
  148,
  148,
  147,
  147,
  147,
  147,
  147,
  147,
  147,
  147,
  147,
  147,
  147,
  147,
  147,
  147,
  147,
  147,
  147,
  147,
  146,
  146,
  146,
  146,
  146,
  146,
  146,
  146,
  146,
  146,
  146,
  146,
  146,
  145,
  145,
  145,
  145,
  145,
  145,
  145,
  145,
  145,
  145,
  145,
  145,
  145,
  145,
  145,
  145,
  144,
  144,
  144,
  144,
  144,
  144,
  144,
  144,
  144,
  144,
  144,
  144,
  144,
  144,
  144,
  144,
  144,
  144,
  143,
  143,
  143,
  143,
  143,
  143,
  143,
  143,
  143,
  143,
  143,
  143,
  143,
  143,
  143,
  143,
  142,
  142,
  142,
  142,
  142,
  142,
  142,
  142,
  142,
  142,
  142,
  142,
  141,
  141,
  141,
  141,
  141,
  141,
  141,
  141,
  141,
  141,
  141,
  141,
  141,
  141,
  140,
  140,
  140,
  140,
  140,
  140,
  140,
  140,
  140,
  140,
  140,
  140,
  140,
  140,
  140,
  140,
  139,
  139,
  139,
  139,
  139,
  139,
  139,
  139,
  139,
  139,
  139,
  139,
  139,
  139,
  139,
  139,
  139,
  139,
  139,
  139,
  139,
  138,
  138,
  138,
  138,
  138,
  138,
  138,
  138,
  138,
  138,
  138,
  138,
  138,
  138,
  138,
  138,
  137,
  137,
  137,
  137,
  137,
  137,
  137,
  137,
  137,
  137,
  136,
  136,
  136,
  136,
  136,
  136,
  136,
  136,
  136,
  136,
  136,
  136,
  136,
  136,
  136,
  136,
  136,
  136,
  136,
  135,
  135,
  135,
  135,
  135,
  135,
  135,
  135,
  135,
  135,
  135,
  135,
  135,
  134,
  134,
  134,
  134,
  134,
  134,
  134,
  134,
  134,
  134,
  134,
  134,
  134,
  134,
  134,
  134,
  133,
  133,
  133,
  133,
  133,
  133,
  133,
  133,
  133,
  133,
  133,
  133,
  133,
  133,
  133,
  133,
  132,
  132,
  132,
  132,
  132,
  132,
  132,
  132,
  132,
  132,
  131,
  131,
  131,
  131,
  131,
  131,
  131,
  131,
  131,
  131,
  131,
  131,
  131,
  131,
  131,
  131,
  131,
  130,
  130,
  130,
  130,
  130,
  130,
  130,
  130,
  130,
  130,
  130,
  130,
  130,
  130,
  130,
  129,
  129,
  129,
  129,
  129,
  129,
  129,
  129,
  129,
  129,
  129,
  129,
  129,
  129,
  129,
  129,
  129,
  129,
  129,
  128,
  128,
  128,
  128,
  128,
  128,
  128,
  128,
  128,
  128,
  128,
  128,
  128,
  128,
  128,
  128,
  128,
  128,
  128,
  127,
  127,
  127,
  127,
  127,
  127,
  127,
  127,
  127,
  127,
  127,
  127,
  127,
  127,
  127,
  127,
  127,
  127,
  127,
  126,
  126,
  126,
  126,
  126,
  126,
  126,
  126,
  126,
  126,
  126,
  126,
  126,
  126,
  126,
  126,
  126,
  126,
  126,
  126,
  126,
  126,
  125,
  125,
  125,
  125,
  125,
  125,
  125,
  125,
  125,
  125,
  125,
  125,
  125,
  125,
  125,
  125,
  125,
  125,
  125,
  125,
  125,
  125,
  125,
  125,
  125,
  125,
  124,
  124,
  124,
  124,
  124,
  124,
  124,
  124,
  124,
  124,
  124,
  124,
  124,
  124,
  124,
  124,
  124,
  124,
  124,
  124,
  124,
  124,
  123,
  123,
  123,
  123,
  123,
  123,
  123,
  123,
  123,
  123,
  123,
  123,
  123,
  123,
  123,
  123,
  123,
  123,
  123,
  123,
  122,
  122,
  122,
  122,
  122,
  122,
  122,
  122,
  122,
  122,
  122,
  122,
  122,
  122,
  121,
  121,
  121,
  121,
  121,
  121,
  121,
  121,
  121,
  121,
  121,
  121,
  120,
  120,
  120,
  120,
  120,
  120,
  120,
  120,
  120,
  120,
  120,
  120,
  120,
  120,
  120,
  120,
  120,
  120,
  119,
  119,
  119,
  119,
  119,
  119,
  119,
  119,
  119,
  119,
  119,
  119,
  119,
  119,
  119,
  119,
  119,
  119,
  119,
  119,
  119,
  119,
  119,
  119,
  119,
  119,
  118,
  118,
  118,
  118,
  118,
  118,
  118,
  118,
  118,
  118,
  118,
  118,
  117,
  117,
  117,
  117,
  117,
  117,
  117,
  117,
  117,
  117,
  117,
  117,
  117,
  117,
  117,
  117,
  117,
  117,
  117,
  117,
  117,
  117,
  117
 ]
}